{
  "version": "1.0",
  "truncation": null,
  "padding": null,
  "added_tokens": [
    {
      "id": 0,
      "content": "[UNK]",
      "single_word": false,
      "lstrip": false,
      "rstrip": false,
      "normalized": false,
      "special": true
    },
    {
      "id": 1,
      "content": "[CLS]",
      "single_word": false,
      "lstrip": false,
      "rstrip": false,
      "normalized": false,
      "special": true
    },
    {
      "id": 2,
      "content": "[SEP]",
      "single_word": false,
      "lstrip": false,
      "rstrip": false,
      "normalized": false,
      "special": true
    },
    {
      "id": 3,
      "content": "[PAD]",
      "single_word": false,
      "lstrip": false,
      "rstrip": false,
      "normalized": false,
      "special": true
    },
    {
      "id": 4,
      "content": "[MASK]",
      "single_word": false,
      "lstrip": false,
      "rstrip": false,
      "normalized": false,
      "special": true
    }
  ],
  "normalizer": null,
  "pre_tokenizer": {
    "type": "Whitespace"
  },
  "post_processor": null,
  "decoder": null,
  "model": {
    "type": "BPE",
    "dropout": null,
    "unk_token": "[UNK]",
    "continuing_subword_prefix": null,
    "end_of_word_suffix": null,
    "fuse_unk": false,
    "byte_fallback": false,
    "ignore_merges": false,
    "vocab": {
      "[UNK]": 0,
      "[CLS]": 1,
      "[SEP]": 2,
      "[PAD]": 3,
      "[MASK]": 4,
      "!": 5,
      "\"": 6,
      "#": 7,
      "$": 8,
      "%": 9,
      "&": 10,
      "'": 11,
      "(": 12,
      ")": 13,
      "*": 14,
      "+": 15,
      ",": 16,
      "-": 17,
      ".": 18,
      "/": 19,
      "0": 20,
      "1": 21,
      "2": 22,
      "3": 23,
      "4": 24,
      "5": 25,
      "6": 26,
      "7": 27,
      "8": 28,
      "9": 29,
      ":": 30,
      ";": 31,
      "<": 32,
      "=": 33,
      ">": 34,
      "?": 35,
      "@": 36,
      "A": 37,
      "B": 38,
      "C": 39,
      "D": 40,
      "E": 41,
      "F": 42,
      "G": 43,
      "H": 44,
      "I": 45,
      "J": 46,
      "K": 47,
      "L": 48,
      "M": 49,
      "N": 50,
      "O": 51,
      "P": 52,
      "Q": 53,
      "R": 54,
      "S": 55,
      "T": 56,
      "U": 57,
      "V": 58,
      "W": 59,
      "X": 60,
      "Y": 61,
      "Z": 62,
      "[": 63,
      "\\": 64,
      "]": 65,
      "^": 66,
      "_": 67,
      "`": 68,
      "a": 69,
      "b": 70,
      "c": 71,
      "d": 72,
      "e": 73,
      "f": 74,
      "g": 75,
      "h": 76,
      "i": 77,
      "j": 78,
      "k": 79,
      "l": 80,
      "m": 81,
      "n": 82,
      "o": 83,
      "p": 84,
      "q": 85,
      "r": 86,
      "s": 87,
      "t": 88,
      "u": 89,
      "v": 90,
      "w": 91,
      "x": 92,
      "y": 93,
      "z": 94,
      "{": 95,
      "|": 96,
      "}": 97,
      "~": 98,
      "¡": 99,
      "¢": 100,
      "£": 101,
      "¤": 102,
      "¥": 103,
      "¦": 104,
      "§": 105,
      "¨": 106,
      "©": 107,
      "ª": 108,
      "«": 109,
      "¬": 110,
      "­": 111,
      "®": 112,
      "¯": 113,
      "°": 114,
      "±": 115,
      "²": 116,
      "³": 117,
      "´": 118,
      "µ": 119,
      "¶": 120,
      "·": 121,
      "¸": 122,
      "¹": 123,
      "º": 124,
      "»": 125,
      "¼": 126,
      "½": 127,
      "¾": 128,
      "¿": 129,
      "À": 130,
      "Á": 131,
      "Â": 132,
      "Ã": 133,
      "Ä": 134,
      "Å": 135,
      "Æ": 136,
      "Ç": 137,
      "È": 138,
      "É": 139,
      "Ê": 140,
      "Ë": 141,
      "Ì": 142,
      "Í": 143,
      "Î": 144,
      "Ï": 145,
      "Ð": 146,
      "Ñ": 147,
      "Ò": 148,
      "Ó": 149,
      "Ô": 150,
      "Õ": 151,
      "Ö": 152,
      "×": 153,
      "Ø": 154,
      "Ù": 155,
      "Ú": 156,
      "Û": 157,
      "Ü": 158,
      "Ý": 159,
      "Þ": 160,
      "ß": 161,
      "à": 162,
      "á": 163,
      "â": 164,
      "ã": 165,
      "ä": 166,
      "å": 167,
      "æ": 168,
      "ç": 169,
      "è": 170,
      "é": 171,
      "ê": 172,
      "ë": 173,
      "ì": 174,
      "í": 175,
      "î": 176,
      "ï": 177,
      "ð": 178,
      "ñ": 179,
      "ò": 180,
      "ó": 181,
      "ô": 182,
      "õ": 183,
      "ö": 184,
      "÷": 185,
      "ø": 186,
      "ù": 187,
      "ú": 188,
      "û": 189,
      "ü": 190,
      "ý": 191,
      "þ": 192,
      "ÿ": 193,
      "Ā": 194,
      "ā": 195,
      "Ă": 196,
      "ă": 197,
      "Ą": 198,
      "ą": 199,
      "Ć": 200,
      "ć": 201,
      "Ĉ": 202,
      "ĉ": 203,
      "Ċ": 204,
      "ċ": 205,
      "Č": 206,
      "č": 207,
      "Ď": 208,
      "ď": 209,
      "Đ": 210,
      "đ": 211,
      "Ē": 212,
      "ē": 213,
      "Ĕ": 214,
      "ĕ": 215,
      "Ė": 216,
      "ė": 217,
      "Ę": 218,
      "ę": 219,
      "Ě": 220,
      "ě": 221,
      "Ĝ": 222,
      "ĝ": 223,
      "Ğ": 224,
      "ğ": 225,
      "Ġ": 226,
      "ġ": 227,
      "Ģ": 228,
      "ģ": 229,
      "Ĥ": 230,
      "ĥ": 231,
      "Ħ": 232,
      "ħ": 233,
      "Ĩ": 234,
      "ĩ": 235,
      "Ī": 236,
      "ī": 237,
      "Ĭ": 238,
      "ĭ": 239,
      "Į": 240,
      "į": 241,
      "İ": 242,
      "ı": 243,
      "Ĳ": 244,
      "ĳ": 245,
      "Ĵ": 246,
      "ĵ": 247,
      "Ķ": 248,
      "ķ": 249,
      "ĸ": 250,
      "Ĺ": 251,
      "ĺ": 252,
      "Ļ": 253,
      "ļ": 254,
      "Ľ": 255,
      "ľ": 256,
      "Ŀ": 257,
      "ŀ": 258,
      "Ł": 259,
      "ł": 260,
      "Ń": 261,
      "ˉ": 262,
      "˙": 263,
      "Δ": 264,
      "Ω": 265,
      "α": 266,
      "β": 267,
      "γ": 268,
      "η": 269,
      "ψ": 270,
      "​": 271,
      "–": 272,
      "—": 273,
      "―": 274,
      "‘": 275,
      "’": 276,
      "“": 277,
      "”": 278,
      "•": 279,
      "…": 280,
      "‧": 281,
      "′": 282,
      "€": 283,
      "℃": 284,
      "→": 285,
      "∙": 286,
      "∶": 287,
      "⊙": 288,
      "①": 289,
      "②": 290,
      "③": 291,
      "⑦": 292,
      "⑺": 293,
      "─": 294,
      "□": 295,
      "▪": 296,
      "△": 297,
      "▽": 298,
      "○": 299,
      "◎": 300,
      "●": 301,
      "★": 302,
      "☆": 303,
      "、": 304,
      "。": 305,
      "〈": 306,
      "〉": 307,
      "《": 308,
      "》": 309,
      "「": 310,
      "」": 311,
      "『": 312,
      "』": 313,
      "【": 314,
      "】": 315,
      "〝": 316,
      "〞": 317,
      "・": 318,
      "䠐": 319,
      "一": 320,
      "丁": 321,
      "七": 322,
      "万": 323,
      "丈": 324,
      "三": 325,
      "上": 326,
      "下": 327,
      "丌": 328,
      "不": 329,
      "与": 330,
      "丐": 331,
      "丑": 332,
      "专": 333,
      "且": 334,
      "世": 335,
      "丘": 336,
      "丙": 337,
      "业": 338,
      "丛": 339,
      "东": 340,
      "丝": 341,
      "丢": 342,
      "两": 343,
      "严": 344,
      "丧": 345,
      "个": 346,
      "丫": 347,
      "中": 348,
      "丰": 349,
      "串": 350,
      "临": 351,
      "丶": 352,
      "丸": 353,
      "丹": 354,
      "为": 355,
      "主": 356,
      "丽": 357,
      "举": 358,
      "乃": 359,
      "久": 360,
      "么": 361,
      "义": 362,
      "之": 363,
      "乌": 364,
      "乍": 365,
      "乎": 366,
      "乏": 367,
      "乐": 368,
      "乒": 369,
      "乓": 370,
      "乔": 371,
      "乖": 372,
      "乘": 373,
      "乙": 374,
      "乜": 375,
      "九": 376,
      "乞": 377,
      "也": 378,
      "习": 379,
      "乡": 380,
      "书": 381,
      "买": 382,
      "乱": 383,
      "乳": 384,
      "乾": 385,
      "了": 386,
      "予": 387,
      "争": 388,
      "事": 389,
      "二": 390,
      "于": 391,
      "亏": 392,
      "云": 393,
      "互": 394,
      "五": 395,
      "井": 396,
      "亘": 397,
      "亚": 398,
      "些": 399,
      "亟": 400,
      "亡": 401,
      "亢": 402,
      "交": 403,
      "亥": 404,
      "亦": 405,
      "产": 406,
      "亨": 407,
      "亩": 408,
      "享": 409,
      "京": 410,
      "亭": 411,
      "亮": 412,
      "亲": 413,
      "亳": 414,
      "亵": 415,
      "人": 416,
      "亻": 417,
      "亿": 418,
      "什": 419,
      "仁": 420,
      "仃": 421,
      "仄": 422,
      "仅": 423,
      "仆": 424,
      "仇": 425,
      "今": 426,
      "介": 427,
      "仍": 428,
      "从": 429,
      "仑": 430,
      "仓": 431,
      "仔": 432,
      "仕": 433,
      "他": 434,
      "仗": 435,
      "付": 436,
      "仙": 437,
      "仟": 438,
      "代": 439,
      "令": 440,
      "以": 441,
      "仪": 442,
      "仫": 443,
      "们": 444,
      "仰": 445,
      "仲": 446,
      "件": 447,
      "价": 448,
      "任": 449,
      "份": 450,
      "仿": 451,
      "企": 452,
      "伉": 453,
      "伊": 454,
      "伍": 455,
      "伎": 456,
      "伏": 457,
      "伐": 458,
      "休": 459,
      "众": 460,
      "优": 461,
      "伙": 462,
      "会": 463,
      "伛": 464,
      "伞": 465,
      "伟": 466,
      "传": 467,
      "伤": 468,
      "伦": 469,
      "伪": 470,
      "伯": 471,
      "估": 472,
      "伱": 473,
      "伴": 474,
      "伶": 475,
      "伸": 476,
      "伺": 477,
      "似": 478,
      "伽": 479,
      "但": 480,
      "位": 481,
      "低": 482,
      "住": 483,
      "佐": 484,
      "佑": 485,
      "体": 486,
      "佔": 487,
      "何": 488,
      "余": 489,
      "佛": 490,
      "作": 491,
      "你": 492,
      "佢": 493,
      "佣": 494,
      "佩": 495,
      "佬": 496,
      "佯": 497,
      "佳": 498,
      "使": 499,
      "侃": 500,
      "侄": 501,
      "侈": 502,
      "例": 503,
      "侍": 504,
      "侏": 505,
      "侑": 506,
      "供": 507,
      "依": 508,
      "侠": 509,
      "侣": 510,
      "侥": 511,
      "侦": 512,
      "侧": 513,
      "侨": 514,
      "侬": 515,
      "侮": 516,
      "侯": 517,
      "侵": 518,
      "便": 519,
      "促": 520,
      "俄": 521,
      "俊": 522,
      "俏": 523,
      "俐": 524,
      "俑": 525,
      "俗": 526,
      "俘": 527,
      "俚": 528,
      "保": 529,
      "俞": 530,
      "俟": 531,
      "信": 532,
      "俦": 533,
      "俨": 534,
      "俩": 535,
      "俪": 536,
      "俭": 537,
      "修": 538,
      "俯": 539,
      "俱": 540,
      "俳": 541,
      "俶": 542,
      "俸": 543,
      "俺": 544,
      "俾": 545,
      "倌": 546,
      "倍": 547,
      "倏": 548,
      "倒": 549,
      "倓": 550,
      "倔": 551,
      "倘": 552,
      "候": 553,
      "倚": 554,
      "借": 555,
      "倡": 556,
      "倦": 557,
      "倩": 558,
      "倪": 559,
      "倭": 560,
      "倶": 561,
      "债": 562,
      "值": 563,
      "倾": 564,
      "假": 565,
      "偎": 566,
      "偏": 567,
      "偕": 568,
      "做": 569,
      "停": 570,
      "健": 571,
      "偶": 572,
      "偷": 573,
      "偻": 574,
      "偾": 575,
      "偿": 576,
      "傀": 577,
      "傅": 578,
      "傈": 579,
      "傍": 580,
      "傢": 581,
      "傣": 582,
      "储": 583,
      "傩": 584,
      "催": 585,
      "傲": 586,
      "傻": 587,
      "像": 588,
      "僚": 589,
      "僧": 590,
      "僮": 591,
      "僳": 592,
      "僵": 593,
      "僻": 594,
      "儆": 595,
      "儒": 596,
      "儡": 597,
      "儿": 598,
      "兀": 599,
      "允": 600,
      "元": 601,
      "兄": 602,
      "充": 603,
      "兆": 604,
      "先": 605,
      "光": 606,
      "克": 607,
      "免": 608,
      "兑": 609,
      "兔": 610,
      "党": 611,
      "兜": 612,
      "兢": 613,
      "入": 614,
      "全": 615,
      "八": 616,
      "公": 617,
      "六": 618,
      "兮": 619,
      "兰": 620,
      "共": 621,
      "兲": 622,
      "关": 623,
      "兴": 624,
      "兵": 625,
      "其": 626,
      "具": 627,
      "典": 628,
      "兹": 629,
      "养": 630,
      "兼": 631,
      "兽": 632,
      "冀": 633,
      "内": 634,
      "冈": 635,
      "冉": 636,
      "册": 637,
      "再": 638,
      "冒": 639,
      "冕": 640,
      "冗": 641,
      "写": 642,
      "军": 643,
      "农": 644,
      "冠": 645,
      "冢": 646,
      "冤": 647,
      "冥": 648,
      "冬": 649,
      "冯": 650,
      "冰": 651,
      "冲": 652,
      "决": 653,
      "况": 654,
      "冶": 655,
      "冷": 656,
      "冸": 657,
      "冻": 658,
      "冼": 659,
      "净": 660,
      "凄": 661,
      "准": 662,
      "凇": 663,
      "凉": 664,
      "凋": 665,
      "凌": 666,
      "减": 667,
      "凑": 668,
      "凖": 669,
      "凛": 670,
      "凝": 671,
      "几": 672,
      "凡": 673,
      "凤": 674,
      "凭": 675,
      "凯": 676,
      "凰": 677,
      "凳": 678,
      "凶": 679,
      "凸": 680,
      "凹": 681,
      "出": 682,
      "击": 683,
      "凼": 684,
      "函": 685,
      "凿": 686,
      "刀": 687,
      "刁": 688,
      "刃": 689,
      "分": 690,
      "切": 691,
      "刈": 692,
      "刊": 693,
      "刍": 694,
      "刑": 695,
      "划": 696,
      "列": 697,
      "刘": 698,
      "则": 699,
      "刚": 700,
      "创": 701,
      "初": 702,
      "删": 703,
      "判": 704,
      "刨": 705,
      "利": 706,
      "别": 707,
      "刮": 708,
      "到": 709,
      "制": 710,
      "刷": 711,
      "券": 712,
      "刹": 713,
      "刺": 714,
      "刻": 715,
      "刽": 716,
      "剁": 717,
      "剂": 718,
      "剃": 719,
      "削": 720,
      "前": 721,
      "剐": 722,
      "剑": 723,
      "剔": 724,
      "剖": 725,
      "剤": 726,
      "剥": 727,
      "剧": 728,
      "剩": 729,
      "剪": 730,
      "副": 731,
      "割": 732,
      "剽": 733,
      "劈": 734,
      "力": 735,
      "劝": 736,
      "办": 737,
      "功": 738,
      "加": 739,
      "务": 740,
      "劣": 741,
      "动": 742,
      "助": 743,
      "努": 744,
      "劫": 745,
      "励": 746,
      "劲": 747,
      "劳": 748,
      "劾": 749,
      "势": 750,
      "勃": 751,
      "勇": 752,
      "勉": 753,
      "勋": 754,
      "勐": 755,
      "勒": 756,
      "勘": 757,
      "募": 758,
      "勤": 759,
      "勰": 760,
      "勺": 761,
      "勾": 762,
      "勿": 763,
      "匀": 764,
      "包": 765,
      "匆": 766,
      "匈": 767,
      "匍": 768,
      "匐": 769,
      "匕": 770,
      "化": 771,
      "北": 772,
      "匙": 773,
      "匠": 774,
      "匡": 775,
      "匣": 776,
      "匪": 777,
      "匮": 778,
      "匹": 779,
      "区": 780,
      "医": 781,
      "匾": 782,
      "匿": 783,
      "十": 784,
      "千": 785,
      "卅": 786,
      "升": 787,
      "午": 788,
      "卉": 789,
      "半": 790,
      "卍": 791,
      "华": 792,
      "协": 793,
      "卑": 794,
      "卒": 795,
      "卓": 796,
      "单": 797,
      "卖": 798,
      "南": 799,
      "博": 800,
      "卜": 801,
      "卞": 802,
      "卟": 803,
      "占": 804,
      "卡": 805,
      "卢": 806,
      "卤": 807,
      "卦": 808,
      "卧": 809,
      "卫": 810,
      "卮": 811,
      "印": 812,
      "危": 813,
      "即": 814,
      "却": 815,
      "卵": 816,
      "卷": 817,
      "卸": 818,
      "卿": 819,
      "厂": 820,
      "厄": 821,
      "厅": 822,
      "历": 823,
      "厉": 824,
      "压": 825,
      "厌": 826,
      "厕": 827,
      "厘": 828,
      "厚": 829,
      "原": 830,
      "厡": 831,
      "厢": 832,
      "厥": 833,
      "厦": 834,
      "厨": 835,
      "厩": 836,
      "厮": 837,
      "去": 838,
      "县": 839,
      "叁": 840,
      "参": 841,
      "又": 842,
      "叉": 843,
      "及": 844,
      "友": 845,
      "双": 846,
      "反": 847,
      "发": 848,
      "叔": 849,
      "取": 850,
      "受": 851,
      "变": 852,
      "叙": 853,
      "叛": 854,
      "叟": 855,
      "叠": 856,
      "口": 857,
      "古": 858,
      "句": 859,
      "另": 860,
      "叨": 861,
      "叩": 862,
      "只": 863,
      "叫": 864,
      "召": 865,
      "叭": 866,
      "叮": 867,
      "可": 868,
      "台": 869,
      "叱": 870,
      "史": 871,
      "右": 872,
      "叶": 873,
      "号": 874,
      "司": 875,
      "叹": 876,
      "叻": 877,
      "叼": 878,
      "叽": 879,
      "吁": 880,
      "吃": 881,
      "各": 882,
      "合": 883,
      "吉": 884,
      "吊": 885,
      "吋": 886,
      "同": 887,
      "名": 888,
      "后": 889,
      "吏": 890,
      "吐": 891,
      "向": 892,
      "吓": 893,
      "吕": 894,
      "吗": 895,
      "君": 896,
      "吝": 897,
      "吞": 898,
      "吟": 899,
      "吠": 900,
      "吡": 901,
      "否": 902,
      "吧": 903,
      "吨": 904,
      "吩": 905,
      "含": 906,
      "听": 907,
      "吭": 908,
      "吮": 909,
      "启": 910,
      "吱": 911,
      "吲": 912,
      "吴": 913,
      "吵": 914,
      "吸": 915,
      "吹": 916,
      "吻": 917,
      "吼": 918,
      "吽": 919,
      "吾": 920,
      "呀": 921,
      "呃": 922,
      "呆": 923,
      "呈": 924,
      "告": 925,
      "呋": 926,
      "呎": 927,
      "呐": 928,
      "呓": 929,
      "呕": 930,
      "呗": 931,
      "员": 932,
      "呛": 933,
      "呜": 934,
      "呢": 935,
      "呤": 936,
      "呦": 937,
      "周": 938,
      "呯": 939,
      "呱": 940,
      "味": 941,
      "呵": 942,
      "呸": 943,
      "呼": 944,
      "命": 945,
      "咀": 946,
      "咁": 947,
      "咂": 948,
      "咄": 949,
      "咆": 950,
      "咋": 951,
      "和": 952,
      "咎": 953,
      "咏": 954,
      "咐": 955,
      "咒": 956,
      "咔": 957,
      "咕": 958,
      "咖": 959,
      "咙": 960,
      "咚": 961,
      "咜": 962,
      "咝": 963,
      "咤": 964,
      "咦": 965,
      "咧": 966,
      "咨": 967,
      "咩": 968,
      "咪": 969,
      "咫": 970,
      "咬": 971,
      "咯": 972,
      "咱": 973,
      "咳": 974,
      "咸": 975,
      "咻": 976,
      "咽": 977,
      "咿": 978,
      "哀": 979,
      "品": 980,
      "哄": 981,
      "哆": 982,
      "哇": 983,
      "哈": 984,
      "哉": 985,
      "哋": 986,
      "哌": 987,
      "响": 988,
      "哎": 989,
      "哑": 990,
      "哒": 991,
      "哔": 992,
      "哗": 993,
      "哚": 994,
      "哝": 995,
      "哞": 996,
      "哟": 997,
      "哥": 998,
      "哦": 999,
      "哧": 1000,
      "哨": 1001,
      "哩": 1002,
      "哪": 1003,
      "哭": 1004,
      "哮": 1005,
      "哲": 1006,
      "哺": 1007,
      "哼": 1008,
      "唁": 1009,
      "唆": 1010,
      "唇": 1011,
      "唉": 1012,
      "唏": 1013,
      "唐": 1014,
      "唑": 1015,
      "唔": 1016,
      "唛": 1017,
      "唠": 1018,
      "唤": 1019,
      "唧": 1020,
      "售": 1021,
      "唯": 1022,
      "唱": 1023,
      "唵": 1024,
      "唾": 1025,
      "啁": 1026,
      "啃": 1027,
      "啄": 1028,
      "商": 1029,
      "啉": 1030,
      "啊": 1031,
      "啜": 1032,
      "啝": 1033,
      "啡": 1034,
      "啤": 1035,
      "啥": 1036,
      "啦": 1037,
      "啧": 1038,
      "啬": 1039,
      "啮": 1040,
      "啰": 1041,
      "啲": 1042,
      "啵": 1043,
      "啶": 1044,
      "啸": 1045,
      "啼": 1046,
      "啾": 1047,
      "喀": 1048,
      "喂": 1049,
      "喃": 1050,
      "善": 1051,
      "喇": 1052,
      "喉": 1053,
      "喊": 1054,
      "喋": 1055,
      "喑": 1056,
      "喔": 1057,
      "喘": 1058,
      "喙": 1059,
      "喜": 1060,
      "喝": 1061,
      "喧": 1062,
      "喱": 1063,
      "喵": 1064,
      "喷": 1065,
      "喹": 1066,
      "喺": 1067,
      "喻": 1068,
      "喽": 1069,
      "嗅": 1070,
      "嗑": 1071,
      "嗒": 1072,
      "嗓": 1073,
      "嗔": 1074,
      "嗖": 1075,
      "嗜": 1076,
      "嗝": 1077,
      "嗡": 1078,
      "嗣": 1079,
      "嗤": 1080,
      "嗥": 1081,
      "嗦": 1082,
      "嗨": 1083,
      "嗪": 1084,
      "嗬": 1085,
      "嗯": 1086,
      "嗰": 1087,
      "嗳": 1088,
      "嗽": 1089,
      "嘀": 1090,
      "嘅": 1091,
      "嘈": 1092,
      "嘉": 1093,
      "嘌": 1094,
      "嘎": 1095,
      "嘘": 1096,
      "嘛": 1097,
      "嘞": 1098,
      "嘟": 1099,
      "嘦": 1100,
      "嘧": 1101,
      "嘱": 1102,
      "嘲": 1103,
      "嘴": 1104,
      "嘶": 1105,
      "嘻": 1106,
      "嘿": 1107,
      "噌": 1108,
      "噎": 1109,
      "噔": 1110,
      "噗": 1111,
      "噙": 1112,
      "噜": 1113,
      "噢": 1114,
      "噤": 1115,
      "器": 1116,
      "噩": 1117,
      "噪": 1118,
      "噬": 1119,
      "噱": 1120,
      "噻": 1121,
      "嚎": 1122,
      "嚟": 1123,
      "嚣": 1124,
      "嚷": 1125,
      "嚼": 1126,
      "囊": 1127,
      "囔": 1128,
      "囚": 1129,
      "四": 1130,
      "回": 1131,
      "因": 1132,
      "囡": 1133,
      "团": 1134,
      "囤": 1135,
      "园": 1136,
      "困": 1137,
      "囱": 1138,
      "围": 1139,
      "囹": 1140,
      "固": 1141,
      "国": 1142,
      "图": 1143,
      "囿": 1144,
      "圃": 1145,
      "圆": 1146,
      "圈": 1147,
      "圜": 1148,
      "土": 1149,
      "圣": 1150,
      "在": 1151,
      "圭": 1152,
      "地": 1153,
      "圳": 1154,
      "场": 1155,
      "圾": 1156,
      "址": 1157,
      "坂": 1158,
      "均": 1159,
      "坊": 1160,
      "坍": 1161,
      "坎": 1162,
      "坏": 1163,
      "坐": 1164,
      "坑": 1165,
      "块": 1166,
      "坚": 1167,
      "坛": 1168,
      "坝": 1169,
      "坞": 1170,
      "坟": 1171,
      "坠": 1172,
      "坡": 1173,
      "坤": 1174,
      "坦": 1175,
      "坨": 1176,
      "坩": 1177,
      "坪": 1178,
      "坭": 1179,
      "坯": 1180,
      "坳": 1181,
      "坷": 1182,
      "垂": 1183,
      "垃": 1184,
      "垄": 1185,
      "型": 1186,
      "垒": 1187,
      "垛": 1188,
      "垠": 1189,
      "垢": 1190,
      "垣": 1191,
      "垦": 1192,
      "垩": 1193,
      "垫": 1194,
      "垮": 1195,
      "埃": 1196,
      "埋": 1197,
      "城": 1198,
      "埔": 1199,
      "埚": 1200,
      "域": 1201,
      "埠": 1202,
      "埸": 1203,
      "培": 1204,
      "基": 1205,
      "埼": 1206,
      "堂": 1207,
      "堆": 1208,
      "堇": 1209,
      "堑": 1210,
      "堕": 1211,
      "堡": 1212,
      "堤": 1213,
      "堪": 1214,
      "堰": 1215,
      "堵": 1216,
      "塌": 1217,
      "塑": 1218,
      "塔": 1219,
      "塘": 1220,
      "塞": 1221,
      "填": 1222,
      "境": 1223,
      "墅": 1224,
      "墒": 1225,
      "墓": 1226,
      "墙": 1227,
      "增": 1228,
      "墟": 1229,
      "墨": 1230,
      "墩": 1231,
      "壁": 1232,
      "壑": 1233,
      "壕": 1234,
      "壤": 1235,
      "士": 1236,
      "壬": 1237,
      "壮": 1238,
      "声": 1239,
      "壳": 1240,
      "壶": 1241,
      "壹": 1242,
      "处": 1243,
      "备": 1244,
      "复": 1245,
      "夏": 1246,
      "夕": 1247,
      "外": 1248,
      "多": 1249,
      "夜": 1250,
      "够": 1251,
      "夥": 1252,
      "大": 1253,
      "天": 1254,
      "太": 1255,
      "夫": 1256,
      "夭": 1257,
      "央": 1258,
      "失": 1259,
      "头": 1260,
      "夷": 1261,
      "夸": 1262,
      "夹": 1263,
      "夺": 1264,
      "奂": 1265,
      "奄": 1266,
      "奇": 1267,
      "奈": 1268,
      "奉": 1269,
      "奋": 1270,
      "奎": 1271,
      "奏": 1272,
      "契": 1273,
      "奔": 1274,
      "奕": 1275,
      "奖": 1276,
      "套": 1277,
      "奚": 1278,
      "奠": 1279,
      "奢": 1280,
      "奥": 1281,
      "女": 1282,
      "奴": 1283,
      "奶": 1284,
      "奸": 1285,
      "她": 1286,
      "好": 1287,
      "如": 1288,
      "妃": 1289,
      "妄": 1290,
      "妆": 1291,
      "妇": 1292,
      "妈": 1293,
      "妊": 1294,
      "妒": 1295,
      "妓": 1296,
      "妖": 1297,
      "妙": 1298,
      "妞": 1299,
      "妥": 1300,
      "妨": 1301,
      "妮": 1302,
      "妯": 1303,
      "妲": 1304,
      "妳": 1305,
      "妹": 1306,
      "妻": 1307,
      "妾": 1308,
      "姆": 1309,
      "姊": 1310,
      "始": 1311,
      "姐": 1312,
      "姑": 1313,
      "姓": 1314,
      "委": 1315,
      "姗": 1316,
      "姚": 1317,
      "姜": 1318,
      "姝": 1319,
      "姥": 1320,
      "姨": 1321,
      "姬": 1322,
      "姻": 1323,
      "姿": 1324,
      "威": 1325,
      "娃": 1326,
      "娄": 1327,
      "娅": 1328,
      "娇": 1329,
      "娈": 1330,
      "娌": 1331,
      "娑": 1332,
      "娓": 1333,
      "娘": 1334,
      "娜": 1335,
      "娟": 1336,
      "娠": 1337,
      "娣": 1338,
      "娥": 1339,
      "娩": 1340,
      "娱": 1341,
      "娲": 1342,
      "娴": 1343,
      "娶": 1344,
      "娼": 1345,
      "婀": 1346,
      "婆": 1347,
      "婉": 1348,
      "婊": 1349,
      "婚": 1350,
      "婢": 1351,
      "婧": 1352,
      "婪": 1353,
      "婴": 1354,
      "婷": 1355,
      "婺": 1356,
      "婿": 1357,
      "媒": 1358,
      "媚": 1359,
      "媛": 1360,
      "媲": 1361,
      "媳": 1362,
      "媾": 1363,
      "嫁": 1364,
      "嫂": 1365,
      "嫉": 1366,
      "嫌": 1367,
      "嫖": 1368,
      "嫚": 1369,
      "嫣": 1370,
      "嫦": 1371,
      "嫩": 1372,
      "嫫": 1373,
      "嫲": 1374,
      "嬉": 1375,
      "嬖": 1376,
      "嬗": 1377,
      "嬷": 1378,
      "孀": 1379,
      "子": 1380,
      "孑": 1381,
      "孔": 1382,
      "孕": 1383,
      "字": 1384,
      "存": 1385,
      "孙": 1386,
      "孚": 1387,
      "孜": 1388,
      "孝": 1389,
      "孟": 1390,
      "孢": 1391,
      "季": 1392,
      "孤": 1393,
      "学": 1394,
      "孩": 1395,
      "孪": 1396,
      "孰": 1397,
      "孳": 1398,
      "孵": 1399,
      "孽": 1400,
      "宁": 1401,
      "它": 1402,
      "宅": 1403,
      "宇": 1404,
      "守": 1405,
      "安": 1406,
      "宋": 1407,
      "完": 1408,
      "宏": 1409,
      "宕": 1410,
      "宗": 1411,
      "官": 1412,
      "宙": 1413,
      "定": 1414,
      "宛": 1415,
      "宜": 1416,
      "宝": 1417,
      "实": 1418,
      "宠": 1419,
      "审": 1420,
      "客": 1421,
      "宣": 1422,
      "室": 1423,
      "宦": 1424,
      "宪": 1425,
      "宫": 1426,
      "宰": 1427,
      "害": 1428,
      "宴": 1429,
      "宵": 1430,
      "家": 1431,
      "容": 1432,
      "宽": 1433,
      "宾": 1434,
      "宿": 1435,
      "寂": 1436,
      "寄": 1437,
      "寅": 1438,
      "密": 1439,
      "寇": 1440,
      "富": 1441,
      "寐": 1442,
      "寒": 1443,
      "寓": 1444,
      "寝": 1445,
      "寞": 1446,
      "察": 1447,
      "寡": 1448,
      "寥": 1449,
      "寨": 1450,
      "寮": 1451,
      "寰": 1452,
      "寳": 1453,
      "寸": 1454,
      "对": 1455,
      "寺": 1456,
      "寻": 1457,
      "导": 1458,
      "寿": 1459,
      "封": 1460,
      "射": 1461,
      "将": 1462,
      "尉": 1463,
      "尊": 1464,
      "小": 1465,
      "少": 1466,
      "尒": 1467,
      "尔": 1468,
      "尖": 1469,
      "尘": 1470,
      "尚": 1471,
      "尝": 1472,
      "尤": 1473,
      "尧": 1474,
      "尬": 1475,
      "就": 1476,
      "尴": 1477,
      "尸": 1478,
      "尹": 1479,
      "尺": 1480,
      "尼": 1481,
      "尽": 1482,
      "尾": 1483,
      "尿": 1484,
      "局": 1485,
      "屁": 1486,
      "层": 1487,
      "居": 1488,
      "屈": 1489,
      "屉": 1490,
      "届": 1491,
      "屋": 1492,
      "屎": 1493,
      "屏": 1494,
      "屐": 1495,
      "屑": 1496,
      "展": 1497,
      "属": 1498,
      "屠": 1499,
      "屡": 1500,
      "履": 1501,
      "屯": 1502,
      "山": 1503,
      "屹": 1504,
      "屿": 1505,
      "岁": 1506,
      "岂": 1507,
      "岌": 1508,
      "岐": 1509,
      "岑": 1510,
      "岔": 1511,
      "岖": 1512,
      "岗": 1513,
      "岚": 1514,
      "岛": 1515,
      "岩": 1516,
      "岬": 1517,
      "岭": 1518,
      "岱": 1519,
      "岳": 1520,
      "岸": 1521,
      "岿": 1522,
      "峒": 1523,
      "峕": 1524,
      "峙": 1525,
      "峟": 1526,
      "峡": 1527,
      "峤": 1528,
      "峦": 1529,
      "峨": 1530,
      "峪": 1531,
      "峭": 1532,
      "峰": 1533,
      "峻": 1534,
      "崄": 1535,
      "崇": 1536,
      "崎": 1537,
      "崔": 1538,
      "崖": 1539,
      "崛": 1540,
      "崩": 1541,
      "崭": 1542,
      "崽": 1543,
      "崾": 1544,
      "嵊": 1545,
      "嵋": 1546,
      "嵌": 1547,
      "嵩": 1548,
      "嵬": 1549,
      "嵰": 1550,
      "嵵": 1551,
      "嶂": 1552,
      "嶋": 1553,
      "巅": 1554,
      "巍": 1555,
      "川": 1556,
      "州": 1557,
      "巡": 1558,
      "巢": 1559,
      "工": 1560,
      "左": 1561,
      "巧": 1562,
      "巨": 1563,
      "巩": 1564,
      "巫": 1565,
      "差": 1566,
      "巯": 1567,
      "己": 1568,
      "已": 1569,
      "巳": 1570,
      "巴": 1571,
      "巷": 1572,
      "巾": 1573,
      "巿": 1574,
      "币": 1575,
      "市": 1576,
      "布": 1577,
      "帅": 1578,
      "帆": 1579,
      "师": 1580,
      "希": 1581,
      "帐": 1582,
      "帕": 1583,
      "帖": 1584,
      "帘": 1585,
      "帚": 1586,
      "帛": 1587,
      "帜": 1588,
      "帝": 1589,
      "带": 1590,
      "帧": 1591,
      "席": 1592,
      "帮": 1593,
      "帷": 1594,
      "常": 1595,
      "帽": 1596,
      "幂": 1597,
      "幄": 1598,
      "幅": 1599,
      "幔": 1600,
      "幕": 1601,
      "幢": 1602,
      "干": 1603,
      "平": 1604,
      "年": 1605,
      "并": 1606,
      "幷": 1607,
      "幸": 1608,
      "幻": 1609,
      "幼": 1610,
      "幽": 1611,
      "广": 1612,
      "庄": 1613,
      "庆": 1614,
      "庇": 1615,
      "床": 1616,
      "序": 1617,
      "庐": 1618,
      "库": 1619,
      "应": 1620,
      "底": 1621,
      "店": 1622,
      "庙": 1623,
      "庚": 1624,
      "府": 1625,
      "庞": 1626,
      "废": 1627,
      "度": 1628,
      "座": 1629,
      "庭": 1630,
      "庶": 1631,
      "康": 1632,
      "庸": 1633,
      "廉": 1634,
      "廊": 1635,
      "廓": 1636,
      "廖": 1637,
      "延": 1638,
      "廷": 1639,
      "建": 1640,
      "廿": 1641,
      "开": 1642,
      "异": 1643,
      "弃": 1644,
      "弄": 1645,
      "弈": 1646,
      "弊": 1647,
      "弋": 1648,
      "弌": 1649,
      "式": 1650,
      "弑": 1651,
      "弓": 1652,
      "引": 1653,
      "弗": 1654,
      "弘": 1655,
      "弛": 1656,
      "弟": 1657,
      "张": 1658,
      "弥": 1659,
      "弦": 1660,
      "弧": 1661,
      "弩": 1662,
      "弭": 1663,
      "弯": 1664,
      "弱": 1665,
      "弹": 1666,
      "强": 1667,
      "弼": 1668,
      "彀": 1669,
      "归": 1670,
      "当": 1671,
      "录": 1672,
      "彗": 1673,
      "彝": 1674,
      "形": 1675,
      "彤": 1676,
      "彦": 1677,
      "彩": 1678,
      "彪": 1679,
      "彬": 1680,
      "彭": 1681,
      "彰": 1682,
      "影": 1683,
      "彷": 1684,
      "役": 1685,
      "彻": 1686,
      "彼": 1687,
      "往": 1688,
      "征": 1689,
      "径": 1690,
      "待": 1691,
      "很": 1692,
      "徉": 1693,
      "徊": 1694,
      "律": 1695,
      "徐": 1696,
      "徒": 1697,
      "得": 1698,
      "徘": 1699,
      "徙": 1700,
      "徜": 1701,
      "御": 1702,
      "徨": 1703,
      "循": 1704,
      "徬": 1705,
      "徭": 1706,
      "微": 1707,
      "徳": 1708,
      "徵": 1709,
      "德": 1710,
      "徽": 1711,
      "心": 1712,
      "必": 1713,
      "忆": 1714,
      "忌": 1715,
      "忍": 1716,
      "忏": 1717,
      "忒": 1718,
      "忖": 1719,
      "志": 1720,
      "忘": 1721,
      "忙": 1722,
      "忝": 1723,
      "忠": 1724,
      "忡": 1725,
      "忧": 1726,
      "忪": 1727,
      "快": 1728,
      "忱": 1729,
      "念": 1730,
      "忻": 1731,
      "忽": 1732,
      "忿": 1733,
      "怀": 1734,
      "态": 1735,
      "怂": 1736,
      "怅": 1737,
      "怆": 1738,
      "怎": 1739,
      "怏": 1740,
      "怒": 1741,
      "怕": 1742,
      "怖": 1743,
      "怜": 1744,
      "思": 1745,
      "怠": 1746,
      "怡": 1747,
      "急": 1748,
      "性": 1749,
      "怨": 1750,
      "怪": 1751,
      "怯": 1752,
      "怵": 1753,
      "总": 1754,
      "怼": 1755,
      "恃": 1756,
      "恋": 1757,
      "恍": 1758,
      "恐": 1759,
      "恒": 1760,
      "恕": 1761,
      "恙": 1762,
      "恢": 1763,
      "恣": 1764,
      "恤": 1765,
      "恨": 1766,
      "恩": 1767,
      "恪": 1768,
      "恬": 1769,
      "恭": 1770,
      "息": 1771,
      "恰": 1772,
      "恳": 1773,
      "恶": 1774,
      "恼": 1775,
      "恿": 1776,
      "悃": 1777,
      "悄": 1778,
      "悉": 1779,
      "悌": 1780,
      "悍": 1781,
      "悔": 1782,
      "悖": 1783,
      "悚": 1784,
      "悟": 1785,
      "悠": 1786,
      "患": 1787,
      "悦": 1788,
      "您": 1789,
      "悬": 1790,
      "悯": 1791,
      "悲": 1792,
      "悳": 1793,
      "悴": 1794,
      "悸": 1795,
      "悼": 1796,
      "情": 1797,
      "惆": 1798,
      "惇": 1799,
      "惊": 1800,
      "惋": 1801,
      "惑": 1802,
      "惕": 1803,
      "惘": 1804,
      "惚": 1805,
      "惜": 1806,
      "惟": 1807,
      "惠": 1808,
      "惦": 1809,
      "惧": 1810,
      "惨": 1811,
      "惩": 1812,
      "惫": 1813,
      "惬": 1814,
      "惭": 1815,
      "惯": 1816,
      "惰": 1817,
      "想": 1818,
      "惴": 1819,
      "惶": 1820,
      "惹": 1821,
      "惺": 1822,
      "愁": 1823,
      "愆": 1824,
      "愈": 1825,
      "愉": 1826,
      "意": 1827,
      "愕": 1828,
      "愚": 1829,
      "感": 1830,
      "愣": 1831,
      "愤": 1832,
      "愧": 1833,
      "愫": 1834,
      "愿": 1835,
      "慈": 1836,
      "慌": 1837,
      "慎": 1838,
      "慑": 1839,
      "慕": 1840,
      "慢": 1841,
      "慧": 1842,
      "慨": 1843,
      "慰": 1844,
      "慵": 1845,
      "慷": 1846,
      "憋": 1847,
      "憎": 1848,
      "憔": 1849,
      "憧": 1850,
      "憨": 1851,
      "憩": 1852,
      "憬": 1853,
      "憾": 1854,
      "懂": 1855,
      "懈": 1856,
      "懊": 1857,
      "懑": 1858,
      "懒": 1859,
      "懦": 1860,
      "懵": 1861,
      "懽": 1862,
      "懿": 1863,
      "戈": 1864,
      "戊": 1865,
      "戌": 1866,
      "戍": 1867,
      "戎": 1868,
      "戏": 1869,
      "成": 1870,
      "我": 1871,
      "戒": 1872,
      "或": 1873,
      "戗": 1874,
      "战": 1875,
      "戚": 1876,
      "戛": 1877,
      "戟": 1878,
      "截": 1879,
      "戮": 1880,
      "戳": 1881,
      "戴": 1882,
      "户": 1883,
      "戽": 1884,
      "戾": 1885,
      "房": 1886,
      "所": 1887,
      "扁": 1888,
      "扇": 1889,
      "扈": 1890,
      "扉": 1891,
      "手": 1892,
      "扌": 1893,
      "才": 1894,
      "扎": 1895,
      "扑": 1896,
      "扒": 1897,
      "打": 1898,
      "扔": 1899,
      "托": 1900,
      "扛": 1901,
      "扣": 1902,
      "扦": 1903,
      "执": 1904,
      "扩": 1905,
      "扪": 1906,
      "扫": 1907,
      "扬": 1908,
      "扭": 1909,
      "扮": 1910,
      "扯": 1911,
      "扰": 1912,
      "扳": 1913,
      "扶": 1914,
      "批": 1915,
      "扼": 1916,
      "找": 1917,
      "承": 1918,
      "技": 1919,
      "抄": 1920,
      "抉": 1921,
      "把": 1922,
      "抑": 1923,
      "抒": 1924,
      "抓": 1925,
      "投": 1926,
      "抖": 1927,
      "抗": 1928,
      "折": 1929,
      "抚": 1930,
      "抛": 1931,
      "抜": 1932,
      "抠": 1933,
      "抡": 1934,
      "抢": 1935,
      "护": 1936,
      "报": 1937,
      "抨": 1938,
      "披": 1939,
      "抬": 1940,
      "抱": 1941,
      "抵": 1942,
      "抹": 1943,
      "抺": 1944,
      "押": 1945,
      "抽": 1946,
      "抿": 1947,
      "拂": 1948,
      "拄": 1949,
      "担": 1950,
      "拆": 1951,
      "拇": 1952,
      "拉": 1953,
      "拌": 1954,
      "拍": 1955,
      "拎": 1956,
      "拐": 1957,
      "拒": 1958,
      "拓": 1959,
      "拔": 1960,
      "拖": 1961,
      "拗": 1962,
      "拘": 1963,
      "拙": 1964,
      "拚": 1965,
      "招": 1966,
      "拜": 1967,
      "拟": 1968,
      "拢": 1969,
      "拣": 1970,
      "拥": 1971,
      "拦": 1972,
      "拧": 1973,
      "拨": 1974,
      "择": 1975,
      "括": 1976,
      "拭": 1977,
      "拮": 1978,
      "拯": 1979,
      "拱": 1980,
      "拳": 1981,
      "拴": 1982,
      "拷": 1983,
      "拼": 1984,
      "拽": 1985,
      "拾": 1986,
      "拿": 1987,
      "持": 1988,
      "挂": 1989,
      "指": 1990,
      "挈": 1991,
      "按": 1992,
      "挎": 1993,
      "挑": 1994,
      "挖": 1995,
      "挚": 1996,
      "挛": 1997,
      "挝": 1998,
      "挞": 1999,
      "挟": 2000,
      "挠": 2001,
      "挡": 2002,
      "挣": 2003,
      "挤": 2004,
      "挥": 2005,
      "挨": 2006,
      "挪": 2007,
      "挫": 2008,
      "振": 2009,
      "挲": 2010,
      "挺": 2011,
      "挽": 2012,
      "捂": 2013,
      "捄": 2014,
      "捅": 2015,
      "捆": 2016,
      "捉": 2017,
      "捍": 2018,
      "捏": 2019,
      "捐": 2020,
      "捕": 2021,
      "捞": 2022,
      "损": 2023,
      "捡": 2024,
      "换": 2025,
      "捣": 2026,
      "捧": 2027,
      "捩": 2028,
      "据": 2029,
      "捶": 2030,
      "捷": 2031,
      "捻": 2032,
      "掀": 2033,
      "掂": 2034,
      "掇": 2035,
      "授": 2036,
      "掉": 2037,
      "掌": 2038,
      "掏": 2039,
      "掐": 2040,
      "排": 2041,
      "掖": 2042,
      "掘": 2043,
      "掠": 2044,
      "探": 2045,
      "接": 2046,
      "控": 2047,
      "推": 2048,
      "掩": 2049,
      "措": 2050,
      "掬": 2051,
      "掰": 2052,
      "掳": 2053,
      "掷": 2054,
      "掸": 2055,
      "掺": 2056,
      "掽": 2057,
      "揉": 2058,
      "揍": 2059,
      "描": 2060,
      "提": 2061,
      "插": 2062,
      "握": 2063,
      "揣": 2064,
      "揩": 2065,
      "揪": 2066,
      "揭": 2067,
      "援": 2068,
      "揽": 2069,
      "揾": 2070,
      "揿": 2071,
      "搁": 2072,
      "搂": 2073,
      "搅": 2074,
      "搏": 2075,
      "搐": 2076,
      "搓": 2077,
      "搔": 2078,
      "搜": 2079,
      "搞": 2080,
      "搪": 2081,
      "搬": 2082,
      "搭": 2083,
      "携": 2084,
      "摁": 2085,
      "摄": 2086,
      "摆": 2087,
      "摇": 2088,
      "摈": 2089,
      "摊": 2090,
      "摒": 2091,
      "摔": 2092,
      "摘": 2093,
      "摞": 2094,
      "摧": 2095,
      "摩": 2096,
      "摸": 2097,
      "摹": 2098,
      "摺": 2099,
      "撃": 2100,
      "撅": 2101,
      "撇": 2102,
      "撑": 2103,
      "撒": 2104,
      "撕": 2105,
      "撞": 2106,
      "撤": 2107,
      "撬": 2108,
      "播": 2109,
      "撮": 2110,
      "撰": 2111,
      "撵": 2112,
      "撷": 2113,
      "撼": 2114,
      "擅": 2115,
      "操": 2116,
      "擎": 2117,
      "擒": 2118,
      "擞": 2119,
      "擦": 2120,
      "攀": 2121,
      "攒": 2122,
      "攘": 2123,
      "攥": 2124,
      "攫": 2125,
      "支": 2126,
      "收": 2127,
      "攸": 2128,
      "改": 2129,
      "攻": 2130,
      "放": 2131,
      "政": 2132,
      "故": 2133,
      "效": 2134,
      "敌": 2135,
      "敏": 2136,
      "救": 2137,
      "敕": 2138,
      "敖": 2139,
      "教": 2140,
      "敛": 2141,
      "敝": 2142,
      "敞": 2143,
      "敢": 2144,
      "散": 2145,
      "敦": 2146,
      "敬": 2147,
      "数": 2148,
      "敲": 2149,
      "整": 2150,
      "敷": 2151,
      "文": 2152,
      "斋": 2153,
      "斌": 2154,
      "斎": 2155,
      "斐": 2156,
      "斑": 2157,
      "斓": 2158,
      "斗": 2159,
      "料": 2160,
      "斛": 2161,
      "斜": 2162,
      "斟": 2163,
      "斡": 2164,
      "斤": 2165,
      "斥": 2166,
      "斧": 2167,
      "斩": 2168,
      "断": 2169,
      "斯": 2170,
      "新": 2171,
      "方": 2172,
      "施": 2173,
      "旁": 2174,
      "旅": 2175,
      "旋": 2176,
      "旌": 2177,
      "族": 2178,
      "旗": 2179,
      "无": 2180,
      "既": 2181,
      "日": 2182,
      "旦": 2183,
      "旧": 2184,
      "旨": 2185,
      "早": 2186,
      "旬": 2187,
      "旭": 2188,
      "旱": 2189,
      "旳": 2190,
      "时": 2191,
      "旷": 2192,
      "旺": 2193,
      "昀": 2194,
      "昂": 2195,
      "昆": 2196,
      "昉": 2197,
      "昊": 2198,
      "昌": 2199,
      "明": 2200,
      "昏": 2201,
      "易": 2202,
      "昔": 2203,
      "昕": 2204,
      "昙": 2205,
      "星": 2206,
      "映": 2207,
      "春": 2208,
      "昧": 2209,
      "昨": 2210,
      "昭": 2211,
      "是": 2212,
      "昵": 2213,
      "昼": 2214,
      "显": 2215,
      "晁": 2216,
      "晃": 2217,
      "晋": 2218,
      "晌": 2219,
      "晏": 2220,
      "晒": 2221,
      "晓": 2222,
      "晕": 2223,
      "晖": 2224,
      "晚": 2225,
      "晟": 2226,
      "晤": 2227,
      "晦": 2228,
      "晨": 2229,
      "普": 2230,
      "景": 2231,
      "晰": 2232,
      "晴": 2233,
      "晶": 2234,
      "智": 2235,
      "晾": 2236,
      "暂": 2237,
      "暇": 2238,
      "暋": 2239,
      "暑": 2240,
      "暖": 2241,
      "暗": 2242,
      "暧": 2243,
      "暨": 2244,
      "暮": 2245,
      "暴": 2246,
      "暹": 2247,
      "曈": 2248,
      "曙": 2249,
      "曝": 2250,
      "曦": 2251,
      "曰": 2252,
      "曲": 2253,
      "曳": 2254,
      "更": 2255,
      "曹": 2256,
      "曼": 2257,
      "曾": 2258,
      "替": 2259,
      "最": 2260,
      "月": 2261,
      "有": 2262,
      "朊": 2263,
      "朋": 2264,
      "服": 2265,
      "朔": 2266,
      "朗": 2267,
      "望": 2268,
      "朝": 2269,
      "期": 2270,
      "朦": 2271,
      "木": 2272,
      "未": 2273,
      "末": 2274,
      "本": 2275,
      "札": 2276,
      "术": 2277,
      "朱": 2278,
      "朴": 2279,
      "朵": 2280,
      "机": 2281,
      "朼": 2282,
      "朽": 2283,
      "杀": 2284,
      "杂": 2285,
      "权": 2286,
      "杆": 2287,
      "杈": 2288,
      "杉": 2289,
      "李": 2290,
      "杏": 2291,
      "材": 2292,
      "村": 2293,
      "杖": 2294,
      "杜": 2295,
      "杞": 2296,
      "束": 2297,
      "杠": 2298,
      "条": 2299,
      "来": 2300,
      "杨": 2301,
      "杪": 2302,
      "杭": 2303,
      "杯": 2304,
      "杰": 2305,
      "松": 2306,
      "板": 2307,
      "极": 2308,
      "构": 2309,
      "枉": 2310,
      "枋": 2311,
      "析": 2312,
      "枕": 2313,
      "林": 2314,
      "枚": 2315,
      "果": 2316,
      "枝": 2317,
      "枞": 2318,
      "枢": 2319,
      "枣": 2320,
      "枪": 2321,
      "枫": 2322,
      "枭": 2323,
      "枯": 2324,
      "架": 2325,
      "枷": 2326,
      "枸": 2327,
      "柃": 2328,
      "柄": 2329,
      "柏": 2330,
      "某": 2331,
      "柑": 2332,
      "染": 2333,
      "柔": 2334,
      "柚": 2335,
      "柜": 2336,
      "柞": 2337,
      "柠": 2338,
      "柢": 2339,
      "查": 2340,
      "柩": 2341,
      "柬": 2342,
      "柯": 2343,
      "柰": 2344,
      "柱": 2345,
      "柳": 2346,
      "柴": 2347,
      "柿": 2348,
      "栀": 2349,
      "栅": 2350,
      "标": 2351,
      "栈": 2352,
      "栉": 2353,
      "栋": 2354,
      "栎": 2355,
      "栏": 2356,
      "树": 2357,
      "栓": 2358,
      "栖": 2359,
      "栗": 2360,
      "校": 2361,
      "栩": 2362,
      "株": 2363,
      "样": 2364,
      "核": 2365,
      "根": 2366,
      "格": 2367,
      "栽": 2368,
      "栾": 2369,
      "桁": 2370,
      "桂": 2371,
      "桃": 2372,
      "桅": 2373,
      "框": 2374,
      "案": 2375,
      "桉": 2376,
      "桌": 2377,
      "桎": 2378,
      "桐": 2379,
      "桑": 2380,
      "桓": 2381,
      "桔": 2382,
      "桠": 2383,
      "桡": 2384,
      "档": 2385,
      "桤": 2386,
      "桥": 2387,
      "桦": 2388,
      "桨": 2389,
      "桩": 2390,
      "桶": 2391,
      "梁": 2392,
      "梅": 2393,
      "梆": 2394,
      "梏": 2395,
      "梓": 2396,
      "梗": 2397,
      "梠": 2398,
      "梢": 2399,
      "梦": 2400,
      "梧": 2401,
      "梨": 2402,
      "梭": 2403,
      "梯": 2404,
      "械": 2405,
      "梳": 2406,
      "梵": 2407,
      "检": 2408,
      "棂": 2409,
      "棉": 2410,
      "棋": 2411,
      "棍": 2412,
      "棒": 2413,
      "棕": 2414,
      "棘": 2415,
      "棚": 2416,
      "棠": 2417,
      "棣": 2418,
      "森": 2419,
      "棱": 2420,
      "棵": 2421,
      "棺": 2422,
      "棼": 2423,
      "椅": 2424,
      "植": 2425,
      "椎": 2426,
      "椒": 2427,
      "椠": 2428,
      "椭": 2429,
      "椰": 2430,
      "椴": 2431,
      "椹": 2432,
      "椽": 2433,
      "椿": 2434,
      "楂": 2435,
      "楔": 2436,
      "楚": 2437,
      "楞": 2438,
      "楠": 2439,
      "楣": 2440,
      "楦": 2441,
      "楫": 2442,
      "楮": 2443,
      "楷": 2444,
      "楼": 2445,
      "概": 2446,
      "榄": 2447,
      "榆": 2448,
      "榈": 2449,
      "榉": 2450,
      "榔": 2451,
      "榕": 2452,
      "榜": 2453,
      "榨": 2454,
      "榫": 2455,
      "榭": 2456,
      "榴": 2457,
      "榷": 2458,
      "榻": 2459,
      "槁": 2460,
      "槃": 2461,
      "槌": 2462,
      "槐": 2463,
      "槛": 2464,
      "槟": 2465,
      "槠": 2466,
      "槲": 2467,
      "槽": 2468,
      "槿": 2469,
      "樊": 2470,
      "樟": 2471,
      "模": 2472,
      "横": 2473,
      "樯": 2474,
      "樱": 2475,
      "樽": 2476,
      "橄": 2477,
      "橇": 2478,
      "橘": 2479,
      "橙": 2480,
      "橛": 2481,
      "橡": 2482,
      "橱": 2483,
      "檀": 2484,
      "檐": 2485,
      "檗": 2486,
      "檩": 2487,
      "檬": 2488,
      "檵": 2489,
      "欠": 2490,
      "次": 2491,
      "欢": 2492,
      "欣": 2493,
      "欤": 2494,
      "欧": 2495,
      "欲": 2496,
      "欸": 2497,
      "欺": 2498,
      "款": 2499,
      "歇": 2500,
      "歉": 2501,
      "歌": 2502,
      "歙": 2503,
      "止": 2504,
      "正": 2505,
      "此": 2506,
      "步": 2507,
      "武": 2508,
      "歧": 2509,
      "歪": 2510,
      "歹": 2511,
      "死": 2512,
      "歼": 2513,
      "殃": 2514,
      "殆": 2515,
      "殇": 2516,
      "殉": 2517,
      "殊": 2518,
      "残": 2519,
      "殓": 2520,
      "殖": 2521,
      "殚": 2522,
      "殡": 2523,
      "殴": 2524,
      "段": 2525,
      "殷": 2526,
      "殿": 2527,
      "毁": 2528,
      "毂": 2529,
      "毅": 2530,
      "毋": 2531,
      "母": 2532,
      "每": 2533,
      "毒": 2534,
      "比": 2535,
      "毕": 2536,
      "毗": 2537,
      "毙": 2538,
      "毛": 2539,
      "毡": 2540,
      "毫": 2541,
      "毬": 2542,
      "毯": 2543,
      "氏": 2544,
      "民": 2545,
      "氓": 2546,
      "气": 2547,
      "氘": 2548,
      "氙": 2549,
      "氛": 2550,
      "氟": 2551,
      "氡": 2552,
      "氢": 2553,
      "氦": 2554,
      "氧": 2555,
      "氨": 2556,
      "氩": 2557,
      "氮": 2558,
      "氯": 2559,
      "氰": 2560,
      "水": 2561,
      "永": 2562,
      "汀": 2563,
      "汁": 2564,
      "求": 2565,
      "汇": 2566,
      "汉": 2567,
      "汊": 2568,
      "汐": 2569,
      "汕": 2570,
      "汗": 2571,
      "汛": 2572,
      "汝": 2573,
      "汞": 2574,
      "江": 2575,
      "池": 2576,
      "污": 2577,
      "汤": 2578,
      "汪": 2579,
      "汰": 2580,
      "汲": 2581,
      "汶": 2582,
      "汸": 2583,
      "汽": 2584,
      "汾": 2585,
      "沁": 2586,
      "沂": 2587,
      "沃": 2588,
      "沈": 2589,
      "沉": 2590,
      "沌": 2591,
      "沏": 2592,
      "沐": 2593,
      "沙": 2594,
      "沛": 2595,
      "沟": 2596,
      "没": 2597,
      "沣": 2598,
      "沥": 2599,
      "沦": 2600,
      "沧": 2601,
      "沪": 2602,
      "沫": 2603,
      "沮": 2604,
      "河": 2605,
      "沵": 2606,
      "沸": 2607,
      "油": 2608,
      "治": 2609,
      "沼": 2610,
      "沽": 2611,
      "沾": 2612,
      "沿": 2613,
      "泄": 2614,
      "泉": 2615,
      "泊": 2616,
      "泌": 2617,
      "泓": 2618,
      "泔": 2619,
      "法": 2620,
      "泖": 2621,
      "泗": 2622,
      "泛": 2623,
      "泞": 2624,
      "泡": 2625,
      "波": 2626,
      "泣": 2627,
      "泥": 2628,
      "注": 2629,
      "泪": 2630,
      "泮": 2631,
      "泯": 2632,
      "泰": 2633,
      "泳": 2634,
      "泵": 2635,
      "泸": 2636,
      "泻": 2637,
      "泼": 2638,
      "泽": 2639,
      "洁": 2640,
      "洋": 2641,
      "洒": 2642,
      "洗": 2643,
      "洛": 2644,
      "洞": 2645,
      "津": 2646,
      "洩": 2647,
      "洪": 2648,
      "洮": 2649,
      "洱": 2650,
      "洲": 2651,
      "活": 2652,
      "洼": 2653,
      "洽": 2654,
      "派": 2655,
      "流": 2656,
      "浅": 2657,
      "浆": 2658,
      "浇": 2659,
      "浊": 2660,
      "测": 2661,
      "济": 2662,
      "浏": 2663,
      "浑": 2664,
      "浒": 2665,
      "浓": 2666,
      "浙": 2667,
      "浚": 2668,
      "浜": 2669,
      "浣": 2670,
      "浦": 2671,
      "浩": 2672,
      "浪": 2673,
      "浮": 2674,
      "浴": 2675,
      "海": 2676,
      "浸": 2677,
      "涂": 2678,
      "涅": 2679,
      "消": 2680,
      "涉": 2681,
      "涌": 2682,
      "涎": 2683,
      "涐": 2684,
      "涓": 2685,
      "涕": 2686,
      "涛": 2687,
      "涝": 2688,
      "涟": 2689,
      "涡": 2690,
      "涣": 2691,
      "涤": 2692,
      "润": 2693,
      "涧": 2694,
      "涨": 2695,
      "涩": 2696,
      "涪": 2697,
      "涯": 2698,
      "液": 2699,
      "涵": 2700,
      "涸": 2701,
      "淀": 2702,
      "淄": 2703,
      "淆": 2704,
      "淇": 2705,
      "淋": 2706,
      "淌": 2707,
      "淑": 2708,
      "淘": 2709,
      "淞": 2710,
      "淡": 2711,
      "淤": 2712,
      "淩": 2713,
      "淫": 2714,
      "淬": 2715,
      "淮": 2716,
      "深": 2717,
      "淳": 2718,
      "混": 2719,
      "淹": 2720,
      "添": 2721,
      "清": 2722,
      "渊": 2723,
      "渍": 2724,
      "渎": 2725,
      "渐": 2726,
      "渔": 2727,
      "渗": 2728,
      "渝": 2729,
      "渠": 2730,
      "渡": 2731,
      "渣": 2732,
      "渤": 2733,
      "渥": 2734,
      "温": 2735,
      "渭": 2736,
      "港": 2737,
      "渲": 2738,
      "渴": 2739,
      "游": 2740,
      "渺": 2741,
      "湃": 2742,
      "湄": 2743,
      "湍": 2744,
      "湎": 2745,
      "湖": 2746,
      "湘": 2747,
      "湛": 2748,
      "湜": 2749,
      "湟": 2750,
      "湫": 2751,
      "湮": 2752,
      "湾": 2753,
      "湿": 2754,
      "溃": 2755,
      "溅": 2756,
      "溉": 2757,
      "源": 2758,
      "溜": 2759,
      "溢": 2760,
      "溥": 2761,
      "溧": 2762,
      "溪": 2763,
      "溯": 2764,
      "溴": 2765,
      "溶": 2766,
      "溺": 2767,
      "滁": 2768,
      "滇": 2769,
      "滋": 2770,
      "滑": 2771,
      "滔": 2772,
      "滕": 2773,
      "滘": 2774,
      "滚": 2775,
      "滞": 2776,
      "滠": 2777,
      "满": 2778,
      "滤": 2779,
      "滥": 2780,
      "滦": 2781,
      "滨": 2782,
      "滩": 2783,
      "滴": 2784,
      "漂": 2785,
      "漆": 2786,
      "漉": 2787,
      "漏": 2788,
      "漓": 2789,
      "演": 2790,
      "漕": 2791,
      "漠": 2792,
      "漩": 2793,
      "漪": 2794,
      "漫": 2795,
      "漯": 2796,
      "漱": 2797,
      "漳": 2798,
      "潇": 2799,
      "潍": 2800,
      "潘": 2801,
      "潜": 2802,
      "潞": 2803,
      "潟": 2804,
      "潢": 2805,
      "潦": 2806,
      "潭": 2807,
      "潮": 2808,
      "潺": 2809,
      "澄": 2810,
      "澈": 2811,
      "澍": 2812,
      "澎": 2813,
      "澜": 2814,
      "澡": 2815,
      "澳": 2816,
      "激": 2817,
      "濒": 2818,
      "濡": 2819,
      "瀑": 2820,
      "瀚": 2821,
      "灌": 2822,
      "火": 2823,
      "灭": 2824,
      "灯": 2825,
      "灰": 2826,
      "灵": 2827,
      "灶": 2828,
      "灸": 2829,
      "灼": 2830,
      "灾": 2831,
      "灿": 2832,
      "炉": 2833,
      "炊": 2834,
      "炎": 2835,
      "炒": 2836,
      "炔": 2837,
      "炖": 2838,
      "炙": 2839,
      "炤": 2840,
      "炫": 2841,
      "炬": 2842,
      "炭": 2843,
      "炮": 2844,
      "炯": 2845,
      "炳": 2846,
      "炸": 2847,
      "点": 2848,
      "炼": 2849,
      "炽": 2850,
      "烁": 2851,
      "烂": 2852,
      "烃": 2853,
      "烈": 2854,
      "烘": 2855,
      "烙": 2856,
      "烛": 2857,
      "烟": 2858,
      "烤": 2859,
      "烦": 2860,
      "烧": 2861,
      "烩": 2862,
      "烫": 2863,
      "烬": 2864,
      "热": 2865,
      "烯": 2866,
      "烷": 2867,
      "烹": 2868,
      "烽": 2869,
      "焊": 2870,
      "焓": 2871,
      "焕": 2872,
      "焗": 2873,
      "焘": 2874,
      "焙": 2875,
      "焚": 2876,
      "焦": 2877,
      "焰": 2878,
      "然": 2879,
      "煀": 2880,
      "煅": 2881,
      "煊": 2882,
      "煌": 2883,
      "煎": 2884,
      "煞": 2885,
      "煤": 2886,
      "煦": 2887,
      "照": 2888,
      "煮": 2889,
      "煲": 2890,
      "煳": 2891,
      "煺": 2892,
      "煽": 2893,
      "熄": 2894,
      "熊": 2895,
      "熏": 2896,
      "熔": 2897,
      "熘": 2898,
      "熙": 2899,
      "熟": 2900,
      "熠": 2901,
      "熨": 2902,
      "熬": 2903,
      "熵": 2904,
      "熹": 2905,
      "燃": 2906,
      "燊": 2907,
      "燎": 2908,
      "燔": 2909,
      "燕": 2910,
      "燥": 2911,
      "燧": 2912,
      "燮": 2913,
      "爆": 2914,
      "爪": 2915,
      "爬": 2916,
      "爱": 2917,
      "爵": 2918,
      "父": 2919,
      "爷": 2920,
      "爸": 2921,
      "爹": 2922,
      "爽": 2923,
      "片": 2924,
      "版": 2925,
      "牌": 2926,
      "牍": 2927,
      "牙": 2928,
      "牛": 2929,
      "牟": 2930,
      "牠": 2931,
      "牡": 2932,
      "牢": 2933,
      "牦": 2934,
      "牧": 2935,
      "物": 2936,
      "牲": 2937,
      "牵": 2938,
      "特": 2939,
      "牺": 2940,
      "犀": 2941,
      "犁": 2942,
      "犊": 2943,
      "犬": 2944,
      "犯": 2945,
      "犰": 2946,
      "状": 2947,
      "犷": 2948,
      "犸": 2949,
      "犹": 2950,
      "狂": 2951,
      "狄": 2952,
      "狐": 2953,
      "狒": 2954,
      "狗": 2955,
      "狙": 2956,
      "狞": 2957,
      "狠": 2958,
      "狡": 2959,
      "狩": 2960,
      "独": 2961,
      "狭": 2962,
      "狮": 2963,
      "狰": 2964,
      "狱": 2965,
      "狳": 2966,
      "狸": 2967,
      "狼": 2968,
      "猎": 2969,
      "猕": 2970,
      "猖": 2971,
      "猛": 2972,
      "猜": 2973,
      "猝": 2974,
      "猥": 2975,
      "猩": 2976,
      "猪": 2977,
      "猫": 2978,
      "猬": 2979,
      "献": 2980,
      "猴": 2981,
      "猾": 2982,
      "猿": 2983,
      "獐": 2984,
      "獒": 2985,
      "獭": 2986,
      "玄": 2987,
      "率": 2988,
      "玉": 2989,
      "玊": 2990,
      "王": 2991,
      "玍": 2992,
      "玛": 2993,
      "玡": 2994,
      "玢": 2995,
      "玥": 2996,
      "玩": 2997,
      "玫": 2998,
      "玮": 2999,
      "环": 3000,
      "现": 3001,
      "玲": 3002,
      "玷": 3003,
      "玻": 3004,
      "珀": 3005,
      "珂": 3006,
      "珈": 3007,
      "珉": 3008,
      "珊": 3009,
      "珍": 3010,
      "珐": 3011,
      "珑": 3012,
      "珞": 3013,
      "珠": 3014,
      "珥": 3015,
      "班": 3016,
      "珲": 3017,
      "珽": 3018,
      "球": 3019,
      "琅": 3020,
      "理": 3021,
      "琉": 3022,
      "琏": 3023,
      "琐": 3024,
      "琛": 3025,
      "琢": 3026,
      "琥": 3027,
      "琦": 3028,
      "琪": 3029,
      "琯": 3030,
      "琳": 3031,
      "琴": 3032,
      "琵": 3033,
      "琶": 3034,
      "琼": 3035,
      "瑄": 3036,
      "瑕": 3037,
      "瑙": 3038,
      "瑚": 3039,
      "瑜": 3040,
      "瑞": 3041,
      "瑟": 3042,
      "瑰": 3043,
      "瑶": 3044,
      "璀": 3045,
      "璁": 3046,
      "璃": 3047,
      "璇": 3048,
      "璋": 3049,
      "璐": 3050,
      "璜": 3051,
      "璞": 3052,
      "璧": 3053,
      "璨": 3054,
      "瓜": 3055,
      "瓢": 3056,
      "瓣": 3057,
      "瓦": 3058,
      "瓯": 3059,
      "瓶": 3060,
      "瓷": 3061,
      "甄": 3062,
      "甐": 3063,
      "甘": 3064,
      "甙": 3065,
      "甚": 3066,
      "甜": 3067,
      "生": 3068,
      "用": 3069,
      "甩": 3070,
      "甫": 3071,
      "甬": 3072,
      "甭": 3073,
      "甯": 3074,
      "田": 3075,
      "由": 3076,
      "甲": 3077,
      "申": 3078,
      "电": 3079,
      "男": 3080,
      "甸": 3081,
      "町": 3082,
      "画": 3083,
      "甾": 3084,
      "畅": 3085,
      "界": 3086,
      "畏": 3087,
      "畑": 3088,
      "畔": 3089,
      "留": 3090,
      "畜": 3091,
      "略": 3092,
      "畦": 3093,
      "番": 3094,
      "畴": 3095,
      "畸": 3096,
      "疆": 3097,
      "疋": 3098,
      "疏": 3099,
      "疑": 3100,
      "疖": 3101,
      "疗": 3102,
      "疙": 3103,
      "疚": 3104,
      "疝": 3105,
      "疟": 3106,
      "疡": 3107,
      "疣": 3108,
      "疤": 3109,
      "疥": 3110,
      "疫": 3111,
      "疮": 3112,
      "疯": 3113,
      "疱": 3114,
      "疲": 3115,
      "疳": 3116,
      "疴": 3117,
      "疵": 3118,
      "疸": 3119,
      "疹": 3120,
      "疼": 3121,
      "疽": 3122,
      "疾": 3123,
      "痂": 3124,
      "痃": 3125,
      "病": 3126,
      "症": 3127,
      "痉": 3128,
      "痊": 3129,
      "痍": 3130,
      "痒": 3131,
      "痔": 3132,
      "痕": 3133,
      "痘": 3134,
      "痛": 3135,
      "痞": 3136,
      "痢": 3137,
      "痣": 3138,
      "痤": 3139,
      "痧": 3140,
      "痪": 3141,
      "痫": 3142,
      "痬": 3143,
      "痰": 3144,
      "痲": 3145,
      "痴": 3146,
      "痹": 3147,
      "痺": 3148,
      "痿": 3149,
      "瘀": 3150,
      "瘁": 3151,
      "瘊": 3152,
      "瘘": 3153,
      "瘙": 3154,
      "瘟": 3155,
      "瘠": 3156,
      "瘢": 3157,
      "瘤": 3158,
      "瘦": 3159,
      "瘩": 3160,
      "瘫": 3161,
      "瘴": 3162,
      "瘾": 3163,
      "瘿": 3164,
      "癊": 3165,
      "癌": 3166,
      "癎": 3167,
      "癔": 3168,
      "癖": 3169,
      "癜": 3170,
      "癣": 3171,
      "癫": 3172,
      "癯": 3173,
      "癸": 3174,
      "登": 3175,
      "白": 3176,
      "百": 3177,
      "皂": 3178,
      "的": 3179,
      "皆": 3180,
      "皇": 3181,
      "皈": 3182,
      "皎": 3183,
      "皑": 3184,
      "皒": 3185,
      "皓": 3186,
      "皖": 3187,
      "皙": 3188,
      "皮": 3189,
      "皱": 3190,
      "皿": 3191,
      "盂": 3192,
      "盃": 3193,
      "盅": 3194,
      "盆": 3195,
      "盈": 3196,
      "益": 3197,
      "盍": 3198,
      "盎": 3199,
      "盏": 3200,
      "盐": 3201,
      "监": 3202,
      "盒": 3203,
      "盔": 3204,
      "盖": 3205,
      "盗": 3206,
      "盘": 3207,
      "盛": 3208,
      "盟": 3209,
      "盥": 3210,
      "目": 3211,
      "盯": 3212,
      "盲": 3213,
      "直": 3214,
      "相": 3215,
      "盹": 3216,
      "盼": 3217,
      "盾": 3218,
      "省": 3219,
      "眈": 3220,
      "眉": 3221,
      "看": 3222,
      "眞": 3223,
      "真": 3224,
      "眠": 3225,
      "眦": 3226,
      "眨": 3227,
      "眩": 3228,
      "眯": 3229,
      "眳": 3230,
      "眶": 3231,
      "眷": 3232,
      "眸": 3233,
      "眺": 3234,
      "眼": 3235,
      "着": 3236,
      "睁": 3237,
      "睇": 3238,
      "睐": 3239,
      "睑": 3240,
      "睛": 3241,
      "睡": 3242,
      "睢": 3243,
      "督": 3244,
      "睦": 3245,
      "睪": 3246,
      "睫": 3247,
      "睬": 3248,
      "睹": 3249,
      "睾": 3250,
      "睿": 3251,
      "瞄": 3252,
      "瞅": 3253,
      "瞋": 3254,
      "瞌": 3255,
      "瞎": 3256,
      "瞒": 3257,
      "瞠": 3258,
      "瞥": 3259,
      "瞧": 3260,
      "瞩": 3261,
      "瞪": 3262,
      "瞬": 3263,
      "瞭": 3264,
      "瞰": 3265,
      "瞳": 3266,
      "瞻": 3267,
      "矍": 3268,
      "矗": 3269,
      "矛": 3270,
      "矜": 3271,
      "矢": 3272,
      "矣": 3273,
      "知": 3274,
      "矩": 3275,
      "矫": 3276,
      "短": 3277,
      "矮": 3278,
      "石": 3279,
      "矶": 3280,
      "矸": 3281,
      "矽": 3282,
      "矾": 3283,
      "矿": 3284,
      "码": 3285,
      "砂": 3286,
      "砌": 3287,
      "砍": 3288,
      "研": 3289,
      "砖": 3290,
      "砚": 3291,
      "砜": 3292,
      "砝": 3293,
      "砥": 3294,
      "砧": 3295,
      "砰": 3296,
      "破": 3297,
      "砷": 3298,
      "砸": 3299,
      "砺": 3300,
      "砼": 3301,
      "砾": 3302,
      "础": 3303,
      "硅": 3304,
      "硒": 3305,
      "硕": 3306,
      "硝": 3307,
      "硫": 3308,
      "硬": 3309,
      "确": 3310,
      "硼": 3311,
      "碇": 3312,
      "碉": 3313,
      "碌": 3314,
      "碍": 3315,
      "碎": 3316,
      "碑": 3317,
      "碗": 3318,
      "碘": 3319,
      "碜": 3320,
      "碟": 3321,
      "碧": 3322,
      "碰": 3323,
      "碱": 3324,
      "碲": 3325,
      "碳": 3326,
      "碾": 3327,
      "磁": 3328,
      "磅": 3329,
      "磊": 3330,
      "磋": 3331,
      "磐": 3332,
      "磕": 3333,
      "磨": 3334,
      "磬": 3335,
      "磱": 3336,
      "磷": 3337,
      "磺": 3338,
      "礁": 3339,
      "礐": 3340,
      "礴": 3341,
      "示": 3342,
      "礼": 3343,
      "社": 3344,
      "祀": 3345,
      "祁": 3346,
      "祂": 3347,
      "祇": 3348,
      "祈": 3349,
      "祉": 3350,
      "祖": 3351,
      "祛": 3352,
      "祜": 3353,
      "祝": 3354,
      "神": 3355,
      "祟": 3356,
      "祠": 3357,
      "祢": 3358,
      "祥": 3359,
      "票": 3360,
      "祭": 3361,
      "祯": 3362,
      "祷": 3363,
      "祸": 3364,
      "祺": 3365,
      "祼": 3366,
      "祾": 3367,
      "禀": 3368,
      "禁": 3369,
      "禄": 3370,
      "禅": 3371,
      "福": 3372,
      "禧": 3373,
      "禹": 3374,
      "禺": 3375,
      "离": 3376,
      "禽": 3377,
      "禾": 3378,
      "秀": 3379,
      "私": 3380,
      "秂": 3381,
      "秃": 3382,
      "秆": 3383,
      "秉": 3384,
      "秋": 3385,
      "种": 3386,
      "科": 3387,
      "秒": 3388,
      "秘": 3389,
      "租": 3390,
      "秤": 3391,
      "秦": 3392,
      "秧": 3393,
      "秩": 3394,
      "积": 3395,
      "称": 3396,
      "秸": 3397,
      "移": 3398,
      "秽": 3399,
      "稀": 3400,
      "程": 3401,
      "稍": 3402,
      "税": 3403,
      "稔": 3404,
      "稗": 3405,
      "稚": 3406,
      "稜": 3407,
      "稞": 3408,
      "稠": 3409,
      "稣": 3410,
      "稳": 3411,
      "稻": 3412,
      "稼": 3413,
      "稽": 3414,
      "稾": 3415,
      "稿": 3416,
      "穆": 3417,
      "穗": 3418,
      "穴": 3419,
      "究": 3420,
      "穷": 3421,
      "穹": 3422,
      "空": 3423,
      "穿": 3424,
      "突": 3425,
      "窃": 3426,
      "窄": 3427,
      "窈": 3428,
      "窍": 3429,
      "窑": 3430,
      "窒": 3431,
      "窕": 3432,
      "窖": 3433,
      "窗": 3434,
      "窘": 3435,
      "窜": 3436,
      "窝": 3437,
      "窟": 3438,
      "窠": 3439,
      "窥": 3440,
      "窦": 3441,
      "窭": 3442,
      "立": 3443,
      "竖": 3444,
      "站": 3445,
      "竞": 3446,
      "竟": 3447,
      "章": 3448,
      "竣": 3449,
      "童": 3450,
      "竭": 3451,
      "端": 3452,
      "竹": 3453,
      "竺": 3454,
      "竽": 3455,
      "竿": 3456,
      "笃": 3457,
      "笆": 3458,
      "笈": 3459,
      "笋": 3460,
      "笑": 3461,
      "笔": 3462,
      "笕": 3463,
      "笙": 3464,
      "笛": 3465,
      "笞": 3466,
      "笠": 3467,
      "符": 3468,
      "笨": 3469,
      "第": 3470,
      "笺": 3471,
      "笼": 3472,
      "等": 3473,
      "筋": 3474,
      "筏": 3475,
      "筐": 3476,
      "筑": 3477,
      "筒": 3478,
      "答": 3479,
      "策": 3480,
      "筛": 3481,
      "筝": 3482,
      "筠": 3483,
      "筮": 3484,
      "筵": 3485,
      "筷": 3486,
      "筹": 3487,
      "签": 3488,
      "简": 3489,
      "箍": 3490,
      "箔": 3491,
      "箕": 3492,
      "算": 3493,
      "箝": 3494,
      "管": 3495,
      "箨": 3496,
      "箫": 3497,
      "箭": 3498,
      "箱": 3499,
      "箴": 3500,
      "篆": 3501,
      "篇": 3502,
      "篑": 3503,
      "篓": 3504,
      "篝": 3505,
      "篡": 3506,
      "篪": 3507,
      "篮": 3508,
      "篱": 3509,
      "篷": 3510,
      "簇": 3511,
      "簌": 3512,
      "簧": 3513,
      "簸": 3514,
      "簿": 3515,
      "籁": 3516,
      "籍": 3517,
      "米": 3518,
      "类": 3519,
      "籼": 3520,
      "籽": 3521,
      "粉": 3522,
      "粑": 3523,
      "粒": 3524,
      "粕": 3525,
      "粗": 3526,
      "粘": 3527,
      "粟": 3528,
      "粤": 3529,
      "粥": 3530,
      "粪": 3531,
      "粬": 3532,
      "粮": 3533,
      "粱": 3534,
      "粲": 3535,
      "粳": 3536,
      "粹": 3537,
      "粽": 3538,
      "精": 3539,
      "糁": 3540,
      "糅": 3541,
      "糊": 3542,
      "糌": 3543,
      "糕": 3544,
      "糖": 3545,
      "糗": 3546,
      "糙": 3547,
      "糜": 3548,
      "糟": 3549,
      "糠": 3550,
      "糯": 3551,
      "系": 3552,
      "紊": 3553,
      "素": 3554,
      "索": 3555,
      "紧": 3556,
      "紫": 3557,
      "累": 3558,
      "絮": 3559,
      "継": 3560,
      "緫": 3561,
      "繁": 3562,
      "纂": 3563,
      "纠": 3564,
      "红": 3565,
      "纤": 3566,
      "纥": 3567,
      "约": 3568,
      "级": 3569,
      "纪": 3570,
      "纫": 3571,
      "纬": 3572,
      "纭": 3573,
      "纯": 3574,
      "纱": 3575,
      "纲": 3576,
      "纳": 3577,
      "纵": 3578,
      "纶": 3579,
      "纷": 3580,
      "纸": 3581,
      "纹": 3582,
      "纺": 3583,
      "纽": 3584,
      "线": 3585,
      "绀": 3586,
      "练": 3587,
      "组": 3588,
      "绅": 3589,
      "细": 3590,
      "织": 3591,
      "终": 3592,
      "绉": 3593,
      "绊": 3594,
      "绌": 3595,
      "绍": 3596,
      "绎": 3597,
      "经": 3598,
      "绑": 3599,
      "绒": 3600,
      "结": 3601,
      "绕": 3602,
      "绗": 3603,
      "绘": 3604,
      "给": 3605,
      "绚": 3606,
      "络": 3607,
      "绝": 3608,
      "绞": 3609,
      "统": 3610,
      "绢": 3611,
      "绣": 3612,
      "绥": 3613,
      "绦": 3614,
      "继": 3615,
      "绩": 3616,
      "绪": 3617,
      "绫": 3618,
      "续": 3619,
      "绮": 3620,
      "绯": 3621,
      "绰": 3622,
      "绳": 3623,
      "维": 3624,
      "绵": 3625,
      "绷": 3626,
      "绸": 3627,
      "绺": 3628,
      "综": 3629,
      "绽": 3630,
      "绿": 3631,
      "缀": 3632,
      "缅": 3633,
      "缆": 3634,
      "缇": 3635,
      "缈": 3636,
      "缉": 3637,
      "缋": 3638,
      "缌": 3639,
      "缍": 3640,
      "缎": 3641,
      "缏": 3642,
      "缐": 3643,
      "缓": 3644,
      "缔": 3645,
      "缕": 3646,
      "编": 3647,
      "缘": 3648,
      "缚": 3649,
      "缝": 3650,
      "缠": 3651,
      "缤": 3652,
      "缥": 3653,
      "缩": 3654,
      "缪": 3655,
      "缬": 3656,
      "缭": 3657,
      "缰": 3658,
      "缴": 3659,
      "缷": 3660,
      "缸": 3661,
      "缺": 3662,
      "罂": 3663,
      "罐": 3664,
      "网": 3665,
      "罒": 3666,
      "罕": 3667,
      "罗": 3668,
      "罘": 3669,
      "罚": 3670,
      "罢": 3671,
      "罨": 3672,
      "罩": 3673,
      "罪": 3674,
      "置": 3675,
      "署": 3676,
      "罹": 3677,
      "罽": 3678,
      "罾": 3679,
      "羁": 3680,
      "羇": 3681,
      "羊": 3682,
      "羌": 3683,
      "美": 3684,
      "羓": 3685,
      "羔": 3686,
      "羙": 3687,
      "羚": 3688,
      "羞": 3689,
      "羟": 3690,
      "羡": 3691,
      "群": 3692,
      "羧": 3693,
      "羬": 3694,
      "羯": 3695,
      "羰": 3696,
      "羲": 3697,
      "羸": 3698,
      "羹": 3699,
      "羽": 3700,
      "翁": 3701,
      "翅": 3702,
      "翎": 3703,
      "翑": 3704,
      "翓": 3705,
      "翔": 3706,
      "翘": 3707,
      "翞": 3708,
      "翟": 3709,
      "翠": 3710,
      "翡": 3711,
      "翤": 3712,
      "翦": 3713,
      "翩": 3714,
      "翰": 3715,
      "翱": 3716,
      "翳": 3717,
      "翴": 3718,
      "翻": 3719,
      "翼": 3720,
      "耀": 3721,
      "老": 3722,
      "考": 3723,
      "耄": 3724,
      "者": 3725,
      "耆": 3726,
      "耋": 3727,
      "而": 3728,
      "耍": 3729,
      "耐": 3730,
      "耕": 3731,
      "耗": 3732,
      "耘": 3733,
      "耙": 3734,
      "耦": 3735,
      "耳": 3736,
      "耶": 3737,
      "耷": 3738,
      "耸": 3739,
      "耻": 3740,
      "耽": 3741,
      "耿": 3742,
      "聂": 3743,
      "聆": 3744,
      "聊": 3745,
      "聋": 3746,
      "职": 3747,
      "聒": 3748,
      "联": 3749,
      "聘": 3750,
      "聚": 3751,
      "聪": 3752,
      "聿": 3753,
      "肃": 3754,
      "肆": 3755,
      "肇": 3756,
      "肉": 3757,
      "肋": 3758,
      "肌": 3759,
      "肓": 3760,
      "肖": 3761,
      "肘": 3762,
      "肚": 3763,
      "肛": 3764,
      "肝": 3765,
      "肟": 3766,
      "肠": 3767,
      "股": 3768,
      "肢": 3769,
      "肤": 3770,
      "肥": 3771,
      "肩": 3772,
      "肪": 3773,
      "肮": 3774,
      "肯": 3775,
      "肱": 3776,
      "育": 3777,
      "肴": 3778,
      "肺": 3779,
      "肼": 3780,
      "肽": 3781,
      "肾": 3782,
      "肿": 3783,
      "胀": 3784,
      "胁": 3785,
      "胃": 3786,
      "胄": 3787,
      "胆": 3788,
      "背": 3789,
      "胍": 3790,
      "胎": 3791,
      "胖": 3792,
      "胚": 3793,
      "胛": 3794,
      "胜": 3795,
      "胝": 3796,
      "胞": 3797,
      "胡": 3798,
      "胧": 3799,
      "胫": 3800,
      "胬": 3801,
      "胭": 3802,
      "胯": 3803,
      "胰": 3804,
      "胱": 3805,
      "胳": 3806,
      "胴": 3807,
      "胶": 3808,
      "胸": 3809,
      "胺": 3810,
      "胼": 3811,
      "能": 3812,
      "脂": 3813,
      "脆": 3814,
      "脉": 3815,
      "脊": 3816,
      "脍": 3817,
      "脏": 3818,
      "脐": 3819,
      "脑": 3820,
      "脒": 3821,
      "脓": 3822,
      "脖": 3823,
      "脚": 3824,
      "脱": 3825,
      "脲": 3826,
      "脸": 3827,
      "脾": 3828,
      "腆": 3829,
      "腈": 3830,
      "腊": 3831,
      "腋": 3832,
      "腌": 3833,
      "腐": 3834,
      "腑": 3835,
      "腓": 3836,
      "腔": 3837,
      "腕": 3838,
      "腙": 3839,
      "腥": 3840,
      "腧": 3841,
      "腭": 3842,
      "腮": 3843,
      "腰": 3844,
      "腱": 3845,
      "腴": 3846,
      "腹": 3847,
      "腺": 3848,
      "腻": 3849,
      "腼": 3850,
      "腾": 3851,
      "腿": 3852,
      "膀": 3853,
      "膈": 3854,
      "膊": 3855,
      "膏": 3856,
      "膘": 3857,
      "膛": 3858,
      "膜": 3859,
      "膝": 3860,
      "膦": 3861,
      "膨": 3862,
      "膳": 3863,
      "膺": 3864,
      "臀": 3865,
      "臂": 3866,
      "臃": 3867,
      "臊": 3868,
      "臣": 3869,
      "臧": 3870,
      "自": 3871,
      "臭": 3872,
      "至": 3873,
      "致": 3874,
      "臻": 3875,
      "臼": 3876,
      "臾": 3877,
      "舀": 3878,
      "舅": 3879,
      "舆": 3880,
      "舌": 3881,
      "舍": 3882,
      "舐": 3883,
      "舒": 3884,
      "舔": 3885,
      "舜": 3886,
      "舞": 3887,
      "舟": 3888,
      "舢": 3889,
      "航": 3890,
      "般": 3891,
      "舰": 3892,
      "舱": 3893,
      "舵": 3894,
      "舶": 3895,
      "舷": 3896,
      "船": 3897,
      "艇": 3898,
      "艘": 3899,
      "艮": 3900,
      "良": 3901,
      "艰": 3902,
      "色": 3903,
      "艳": 3904,
      "艹": 3905,
      "艺": 3906,
      "艾": 3907,
      "艿": 3908,
      "节": 3909,
      "芊": 3910,
      "芋": 3911,
      "芍": 3912,
      "芎": 3913,
      "芒": 3914,
      "芙": 3915,
      "芜": 3916,
      "芝": 3917,
      "芥": 3918,
      "芦": 3919,
      "芨": 3920,
      "芩": 3921,
      "芪": 3922,
      "芫": 3923,
      "芬": 3924,
      "芭": 3925,
      "芮": 3926,
      "芯": 3927,
      "花": 3928,
      "芳": 3929,
      "芸": 3930,
      "芹": 3931,
      "芽": 3932,
      "苄": 3933,
      "苇": 3934,
      "苋": 3935,
      "苍": 3936,
      "苎": 3937,
      "苏": 3938,
      "苑": 3939,
      "苓": 3940,
      "苔": 3941,
      "苗": 3942,
      "苛": 3943,
      "苜": 3944,
      "苞": 3945,
      "苟": 3946,
      "苣": 3947,
      "若": 3948,
      "苦": 3949,
      "苯": 3950,
      "英": 3951,
      "苷": 3952,
      "苹": 3953,
      "茁": 3954,
      "茂": 3955,
      "范": 3956,
      "茄": 3957,
      "茅": 3958,
      "茉": 3959,
      "茎": 3960,
      "茔": 3961,
      "茗": 3962,
      "茚": 3963,
      "茜": 3964,
      "茧": 3965,
      "茨": 3966,
      "茫": 3967,
      "茬": 3968,
      "茭": 3969,
      "茯": 3970,
      "茱": 3971,
      "茴": 3972,
      "茵": 3973,
      "茶": 3974,
      "茸": 3975,
      "茹": 3976,
      "荀": 3977,
      "荆": 3978,
      "草": 3979,
      "荐": 3980,
      "荒": 3981,
      "荔": 3982,
      "荚": 3983,
      "荞": 3984,
      "荟": 3985,
      "荠": 3986,
      "荡": 3987,
      "荣": 3988,
      "荤": 3989,
      "荧": 3990,
      "荨": 3991,
      "荪": 3992,
      "荫": 3993,
      "药": 3994,
      "荷": 3995,
      "荻": 3996,
      "荼": 3997,
      "荽": 3998,
      "莂": 3999,
      "莅": 4000,
      "莉": 4001,
      "莎": 4002,
      "莓": 4003,
      "莘": 4004,
      "莞": 4005,
      "莠": 4006,
      "莨": 4007,
      "莪": 4008,
      "莫": 4009,
      "莰": 4010,
      "莱": 4011,
      "莲": 4012,
      "莳": 4013,
      "莴": 4014,
      "获": 4015,
      "莹": 4016,
      "莺": 4017,
      "莽": 4018,
      "菁": 4019,
      "菂": 4020,
      "菅": 4021,
      "菇": 4022,
      "菊": 4023,
      "菌": 4024,
      "菔": 4025,
      "菜": 4026,
      "菟": 4027,
      "菠": 4028,
      "菡": 4029,
      "菩": 4030,
      "菪": 4031,
      "菱": 4032,
      "菲": 4033,
      "菸": 4034,
      "萃": 4035,
      "萄": 4036,
      "萋": 4037,
      "萌": 4038,
      "萍": 4039,
      "萎": 4040,
      "萘": 4041,
      "萜": 4042,
      "萝": 4043,
      "萤": 4044,
      "营": 4045,
      "萦": 4046,
      "萧": 4047,
      "萨": 4048,
      "萱": 4049,
      "萸": 4050,
      "萼": 4051,
      "落": 4052,
      "葆": 4053,
      "著": 4054,
      "葛": 4055,
      "葠": 4056,
      "葡": 4057,
      "董": 4058,
      "葩": 4059,
      "葫": 4060,
      "葬": 4061,
      "葭": 4062,
      "葰": 4063,
      "葱": 4064,
      "葵": 4065,
      "葺": 4066,
      "蒂": 4067,
      "蒈": 4068,
      "蒋": 4069,
      "蒌": 4070,
      "蒐": 4071,
      "蒙": 4072,
      "蒜": 4073,
      "蒟": 4074,
      "蒲": 4075,
      "蒸": 4076,
      "蒹": 4077,
      "蒺": 4078,
      "蒻": 4079,
      "蒽": 4080,
      "蒿": 4081,
      "蓄": 4082,
      "蓉": 4083,
      "蓍": 4084,
      "蓑": 4085,
      "蓓": 4086,
      "蓖": 4087,
      "蓝": 4088,
      "蓟": 4089,
      "蓣": 4090,
      "蓬": 4091,
      "蓿": 4092,
      "蔑": 4093,
      "蔓": 4094,
      "蔗": 4095,
      "蔚": 4096,
      "蔟": 4097,
      "蔡": 4098,
      "蔬": 4099,
      "蔷": 4100,
      "蔺": 4101,
      "蔻": 4102,
      "蔼": 4103,
      "蔽": 4104,
      "蕃": 4105,
      "蕈": 4106,
      "蕉": 4107,
      "蕊": 4108,
      "蕙": 4109,
      "蕨": 4110,
      "蕴": 4111,
      "蕺": 4112,
      "蕾": 4113,
      "薄": 4114,
      "薇": 4115,
      "薏": 4116,
      "薛": 4117,
      "薪": 4118,
      "薮": 4119,
      "薯": 4120,
      "薰": 4121,
      "薹": 4122,
      "藉": 4123,
      "藏": 4124,
      "藓": 4125,
      "藕": 4126,
      "藜": 4127,
      "藤": 4128,
      "藩": 4129,
      "藻": 4130,
      "藿": 4131,
      "蘑": 4132,
      "蘖": 4133,
      "蘸": 4134,
      "虎": 4135,
      "虏": 4136,
      "虐": 4137,
      "虑": 4138,
      "虔": 4139,
      "虚": 4140,
      "虫": 4141,
      "虱": 4142,
      "虹": 4143,
      "虽": 4144,
      "虾": 4145,
      "蚀": 4146,
      "蚁": 4147,
      "蚂": 4148,
      "蚊": 4149,
      "蚋": 4150,
      "蚌": 4151,
      "蚓": 4152,
      "蚕": 4153,
      "蚜": 4154,
      "蚝": 4155,
      "蚤": 4156,
      "蚯": 4157,
      "蚱": 4158,
      "蚴": 4159,
      "蚶": 4160,
      "蛀": 4161,
      "蛆": 4162,
      "蛇": 4163,
      "蛉": 4164,
      "蛊": 4165,
      "蛋": 4166,
      "蛎": 4167,
      "蛔": 4168,
      "蛙": 4169,
      "蛛": 4170,
      "蛞": 4171,
      "蛟": 4172,
      "蛤": 4173,
      "蛭": 4174,
      "蛮": 4175,
      "蛰": 4176,
      "蛹": 4177,
      "蛾": 4178,
      "蜀": 4179,
      "蜂": 4180,
      "蜃": 4181,
      "蜇": 4182,
      "蜊": 4183,
      "蜍": 4184,
      "蜒": 4185,
      "蜓": 4186,
      "蜕": 4187,
      "蜗": 4188,
      "蜘": 4189,
      "蜜": 4190,
      "蜡": 4191,
      "蜢": 4192,
      "蜥": 4193,
      "蜴": 4194,
      "蜷": 4195,
      "蜻": 4196,
      "蜿": 4197,
      "蝇": 4198,
      "蝈": 4199,
      "蝉": 4200,
      "蝎": 4201,
      "蝓": 4202,
      "蝗": 4203,
      "蝙": 4204,
      "蝠": 4205,
      "蝥": 4206,
      "蝮": 4207,
      "蝴": 4208,
      "蝶": 4209,
      "蝽": 4210,
      "螂": 4211,
      "螃": 4212,
      "螅": 4213,
      "融": 4214,
      "螚": 4215,
      "螟": 4216,
      "螨": 4217,
      "螫": 4218,
      "螭": 4219,
      "螯": 4220,
      "螳": 4221,
      "螺": 4222,
      "蟀": 4223,
      "蟋": 4224,
      "蟑": 4225,
      "蟒": 4226,
      "蟥": 4227,
      "蟹": 4228,
      "蟾": 4229,
      "蠊": 4230,
      "蠕": 4231,
      "蠢": 4232,
      "蠲": 4233,
      "血": 4234,
      "衅": 4235,
      "行": 4236,
      "衍": 4237,
      "衔": 4238,
      "街": 4239,
      "衡": 4240,
      "衢": 4241,
      "衣": 4242,
      "补": 4243,
      "表": 4244,
      "衩": 4245,
      "衫": 4246,
      "衬": 4247,
      "衮": 4248,
      "衰": 4249,
      "衲": 4250,
      "衷": 4251,
      "袁": 4252,
      "袄": 4253,
      "袅": 4254,
      "袈": 4255,
      "袋": 4256,
      "袍": 4257,
      "袒": 4258,
      "袖": 4259,
      "袗": 4260,
      "袜": 4261,
      "袤": 4262,
      "被": 4263,
      "袭": 4264,
      "裁": 4265,
      "裂": 4266,
      "装": 4267,
      "裑": 4268,
      "裔": 4269,
      "裕": 4270,
      "裘": 4271,
      "裙": 4272,
      "裟": 4273,
      "裤": 4274,
      "裨": 4275,
      "裱": 4276,
      "裳": 4277,
      "裴": 4278,
      "裸": 4279,
      "裹": 4280,
      "褐": 4281,
      "褒": 4282,
      "褓": 4283,
      "褙": 4284,
      "褚": 4285,
      "褛": 4286,
      "褥": 4287,
      "褪": 4288,
      "褴": 4289,
      "褶": 4290,
      "襁": 4291,
      "襄": 4292,
      "襟": 4293,
      "西": 4294,
      "要": 4295,
      "覆": 4296,
      "见": 4297,
      "观": 4298,
      "规": 4299,
      "觅": 4300,
      "视": 4301,
      "览": 4302,
      "觉": 4303,
      "觊": 4304,
      "觎": 4305,
      "觐": 4306,
      "觑": 4307,
      "角": 4308,
      "觞": 4309,
      "解": 4310,
      "触": 4311,
      "言": 4312,
      "詹": 4313,
      "誉": 4314,
      "誊": 4315,
      "誓": 4316,
      "謇": 4317,
      "警": 4318,
      "譬": 4319,
      "计": 4320,
      "订": 4321,
      "讣": 4322,
      "认": 4323,
      "讥": 4324,
      "讧": 4325,
      "讨": 4326,
      "让": 4327,
      "讫": 4328,
      "讬": 4329,
      "训": 4330,
      "议": 4331,
      "讯": 4332,
      "记": 4333,
      "讲": 4334,
      "讳": 4335,
      "讴": 4336,
      "讶": 4337,
      "讷": 4338,
      "许": 4339,
      "论": 4340,
      "讼": 4341,
      "讽": 4342,
      "设": 4343,
      "访": 4344,
      "诀": 4345,
      "证": 4346,
      "评": 4347,
      "诅": 4348,
      "识": 4349,
      "诈": 4350,
      "诉": 4351,
      "诊": 4352,
      "诋": 4353,
      "词": 4354,
      "译": 4355,
      "诓": 4356,
      "试": 4357,
      "诗": 4358,
      "诙": 4359,
      "诚": 4360,
      "话": 4361,
      "诞": 4362,
      "诟": 4363,
      "诠": 4364,
      "诡": 4365,
      "询": 4366,
      "诣": 4367,
      "该": 4368,
      "详": 4369,
      "诧": 4370,
      "诨": 4371,
      "诫": 4372,
      "诬": 4373,
      "语": 4374,
      "诮": 4375,
      "误": 4376,
      "诱": 4377,
      "说": 4378,
      "诵": 4379,
      "诶": 4380,
      "请": 4381,
      "诸": 4382,
      "诺": 4383,
      "读": 4384,
      "诽": 4385,
      "课": 4386,
      "谀": 4387,
      "谁": 4388,
      "调": 4389,
      "谄": 4390,
      "谅": 4391,
      "谆": 4392,
      "谈": 4393,
      "谊": 4394,
      "谋": 4395,
      "谍": 4396,
      "谎": 4397,
      "谏": 4398,
      "谐": 4399,
      "谑": 4400,
      "谒": 4401,
      "谓": 4402,
      "谔": 4403,
      "谕": 4404,
      "谗": 4405,
      "谘": 4406,
      "谙": 4407,
      "谚": 4408,
      "谜": 4409,
      "谟": 4410,
      "谢": 4411,
      "谣": 4412,
      "谤": 4413,
      "谦": 4414,
      "谧": 4415,
      "谨": 4416,
      "谩": 4417,
      "谪": 4418,
      "谬": 4419,
      "谭": 4420,
      "谰": 4421,
      "谱": 4422,
      "谴": 4423,
      "谷": 4424,
      "豁": 4425,
      "豆": 4426,
      "豇": 4427,
      "豌": 4428,
      "豚": 4429,
      "象": 4430,
      "豢": 4431,
      "豪": 4432,
      "豫": 4433,
      "豹": 4434,
      "豺": 4435,
      "貂": 4436,
      "貌": 4437,
      "贝": 4438,
      "贞": 4439,
      "负": 4440,
      "贡": 4441,
      "财": 4442,
      "责": 4443,
      "贤": 4444,
      "败": 4445,
      "账": 4446,
      "货": 4447,
      "质": 4448,
      "贩": 4449,
      "贪": 4450,
      "贫": 4451,
      "贬": 4452,
      "购": 4453,
      "贮": 4454,
      "贯": 4455,
      "贱": 4456,
      "贲": 4457,
      "贴": 4458,
      "贵": 4459,
      "贷": 4460,
      "贸": 4461,
      "费": 4462,
      "贺": 4463,
      "贻": 4464,
      "贼": 4465,
      "贽": 4466,
      "贾": 4467,
      "贿": 4468,
      "赁": 4469,
      "赂": 4470,
      "赃": 4471,
      "资": 4472,
      "赅": 4473,
      "赈": 4474,
      "赋": 4475,
      "赌": 4476,
      "赎": 4477,
      "赏": 4478,
      "赐": 4479,
      "赔": 4480,
      "赖": 4481,
      "赘": 4482,
      "赚": 4483,
      "赛": 4484,
      "赝": 4485,
      "赞": 4486,
      "赠": 4487,
      "赢": 4488,
      "赣": 4489,
      "赤": 4490,
      "赦": 4491,
      "赫": 4492,
      "走": 4493,
      "赴": 4494,
      "赵": 4495,
      "赶": 4496,
      "起": 4497,
      "趁": 4498,
      "超": 4499,
      "越": 4500,
      "趋": 4501,
      "趟": 4502,
      "趣": 4503,
      "足": 4504,
      "趴": 4505,
      "趼": 4506,
      "趾": 4507,
      "跃": 4508,
      "跋": 4509,
      "跌": 4510,
      "跎": 4511,
      "跑": 4512,
      "跖": 4513,
      "跗": 4514,
      "跚": 4515,
      "跛": 4516,
      "距": 4517,
      "跟": 4518,
      "跣": 4519,
      "跤": 4520,
      "跨": 4521,
      "跪": 4522,
      "路": 4523,
      "跳": 4524,
      "践": 4525,
      "跺": 4526,
      "跻": 4527,
      "踊": 4528,
      "踌": 4529,
      "踏": 4530,
      "踝": 4531,
      "踞": 4532,
      "踢": 4533,
      "踩": 4534,
      "踪": 4535,
      "踮": 4536,
      "踵": 4537,
      "踹": 4538,
      "蹀": 4539,
      "蹂": 4540,
      "蹄": 4541,
      "蹈": 4542,
      "蹉": 4543,
      "蹑": 4544,
      "蹒": 4545,
      "蹙": 4546,
      "蹦": 4547,
      "蹩": 4548,
      "蹭": 4549,
      "蹲": 4550,
      "蹴": 4551,
      "蹶": 4552,
      "蹿": 4553,
      "躁": 4554,
      "躇": 4555,
      "躏": 4556,
      "躞": 4557,
      "身": 4558,
      "躬": 4559,
      "躯": 4560,
      "躲": 4561,
      "躺": 4562,
      "车": 4563,
      "轧": 4564,
      "轨": 4565,
      "轩": 4566,
      "轫": 4567,
      "转": 4568,
      "轭": 4569,
      "轮": 4570,
      "软": 4571,
      "轰": 4572,
      "轴": 4573,
      "轶": 4574,
      "轻": 4575,
      "轼": 4576,
      "载": 4577,
      "轿": 4578,
      "较": 4579,
      "辄": 4580,
      "辅": 4581,
      "辆": 4582,
      "辈": 4583,
      "辉": 4584,
      "辊": 4585,
      "辍": 4586,
      "辐": 4587,
      "辑": 4588,
      "输": 4589,
      "辕": 4590,
      "辖": 4591,
      "辘": 4592,
      "辙": 4593,
      "辛": 4594,
      "辜": 4595,
      "辞": 4596,
      "辟": 4597,
      "辣": 4598,
      "辨": 4599,
      "辩": 4600,
      "辫": 4601,
      "辰": 4602,
      "辱": 4603,
      "边": 4604,
      "辽": 4605,
      "达": 4606,
      "迁": 4607,
      "迂": 4608,
      "迄": 4609,
      "迅": 4610,
      "过": 4611,
      "迈": 4612,
      "迎": 4613,
      "运": 4614,
      "近": 4615,
      "返": 4616,
      "还": 4617,
      "这": 4618,
      "进": 4619,
      "远": 4620,
      "违": 4621,
      "连": 4622,
      "迟": 4623,
      "迥": 4624,
      "迦": 4625,
      "迩": 4626,
      "迪": 4627,
      "迫": 4628,
      "迭": 4629,
      "述": 4630,
      "迳": 4631,
      "迴": 4632,
      "迷": 4633,
      "迸": 4634,
      "迹": 4635,
      "迺": 4636,
      "追": 4637,
      "退": 4638,
      "送": 4639,
      "适": 4640,
      "逃": 4641,
      "逅": 4642,
      "逆": 4643,
      "选": 4644,
      "逊": 4645,
      "逍": 4646,
      "透": 4647,
      "逐": 4648,
      "递": 4649,
      "途": 4650,
      "逗": 4651,
      "通": 4652,
      "逛": 4653,
      "逝": 4654,
      "逞": 4655,
      "速": 4656,
      "造": 4657,
      "逡": 4658,
      "逢": 4659,
      "逨": 4660,
      "逮": 4661,
      "逸": 4662,
      "逹": 4663,
      "逻": 4664,
      "逼": 4665,
      "逾": 4666,
      "遁": 4667,
      "遂": 4668,
      "遄": 4669,
      "遇": 4670,
      "遍": 4671,
      "遏": 4672,
      "遐": 4673,
      "遑": 4674,
      "道": 4675,
      "遗": 4676,
      "遛": 4677,
      "遢": 4678,
      "遣": 4679,
      "遥": 4680,
      "遨": 4681,
      "遭": 4682,
      "遮": 4683,
      "遵": 4684,
      "避": 4685,
      "邀": 4686,
      "邂": 4687,
      "邃": 4688,
      "邋": 4689,
      "邑": 4690,
      "邓": 4691,
      "邢": 4692,
      "那": 4693,
      "邦": 4694,
      "邪": 4695,
      "邮": 4696,
      "邯": 4697,
      "邱": 4698,
      "邳": 4699,
      "邵": 4700,
      "邸": 4701,
      "邹": 4702,
      "邻": 4703,
      "郁": 4704,
      "郊": 4705,
      "郎": 4706,
      "郑": 4707,
      "郝": 4708,
      "郡": 4709,
      "郢": 4710,
      "部": 4711,
      "郭": 4712,
      "郴": 4713,
      "郸": 4714,
      "都": 4715,
      "鄂": 4716,
      "鄙": 4717,
      "鄞": 4718,
      "酊": 4719,
      "酋": 4720,
      "酌": 4721,
      "配": 4722,
      "酐": 4723,
      "酒": 4724,
      "酗": 4725,
      "酚": 4726,
      "酝": 4727,
      "酞": 4728,
      "酣": 4729,
      "酥": 4730,
      "酩": 4731,
      "酪": 4732,
      "酬": 4733,
      "酮": 4734,
      "酯": 4735,
      "酰": 4736,
      "酱": 4737,
      "酵": 4738,
      "酶": 4739,
      "酷": 4740,
      "酸": 4741,
      "酿": 4742,
      "醅": 4743,
      "醇": 4744,
      "醉": 4745,
      "醋": 4746,
      "醌": 4747,
      "醒": 4748,
      "醚": 4749,
      "醛": 4750,
      "醯": 4751,
      "醺": 4752,
      "釆": 4753,
      "采": 4754,
      "釉": 4755,
      "释": 4756,
      "里": 4757,
      "重": 4758,
      "野": 4759,
      "量": 4760,
      "金": 4761,
      "釜": 4762,
      "鉆": 4763,
      "鉴": 4764,
      "鍊": 4765,
      "鏖": 4766,
      "鑀": 4767,
      "鑑": 4768,
      "鑫": 4769,
      "钇": 4770,
      "针": 4771,
      "钉": 4772,
      "钊": 4773,
      "钒": 4774,
      "钓": 4775,
      "钕": 4776,
      "钗": 4777,
      "钙": 4778,
      "钚": 4779,
      "钛": 4780,
      "钜": 4781,
      "钝": 4782,
      "钞": 4783,
      "钟": 4784,
      "钠": 4785,
      "钡": 4786,
      "钢": 4787,
      "钣": 4788,
      "钥": 4789,
      "钦": 4790,
      "钨": 4791,
      "钩": 4792,
      "钮": 4793,
      "钯": 4794,
      "钰": 4795,
      "钱": 4796,
      "钳": 4797,
      "钴": 4798,
      "钵": 4799,
      "钻": 4800,
      "钼": 4801,
      "钽": 4802,
      "钾": 4803,
      "铀": 4804,
      "铁": 4805,
      "铂": 4806,
      "铃": 4807,
      "铄": 4808,
      "铅": 4809,
      "铇": 4810,
      "铈": 4811,
      "铉": 4812,
      "铌": 4813,
      "铎": 4814,
      "铐": 4815,
      "铙": 4816,
      "铛": 4817,
      "铜": 4818,
      "铝": 4819,
      "铟": 4820,
      "铠": 4821,
      "铣": 4822,
      "铪": 4823,
      "铬": 4824,
      "铭": 4825,
      "铮": 4826,
      "铯": 4827,
      "铰": 4828,
      "铲": 4829,
      "铵": 4830,
      "银": 4831,
      "铸": 4832,
      "铹": 4833,
      "铺": 4834,
      "链": 4835,
      "铿": 4836,
      "销": 4837,
      "锁": 4838,
      "锂": 4839,
      "锄": 4840,
      "锅": 4841,
      "锆": 4842,
      "锈": 4843,
      "锉": 4844,
      "锋": 4845,
      "锌": 4846,
      "锐": 4847,
      "锑": 4848,
      "锕": 4849,
      "锗": 4850,
      "错": 4851,
      "锚": 4852,
      "锝": 4853,
      "锡": 4854,
      "锣": 4855,
      "锤": 4856,
      "锥": 4857,
      "锦": 4858,
      "锭": 4859,
      "键": 4860,
      "锯": 4861,
      "锰": 4862,
      "锴": 4863,
      "锵": 4864,
      "锷": 4865,
      "锹": 4866,
      "锺": 4867,
      "锻": 4868,
      "镀": 4869,
      "镁": 4870,
      "镇": 4871,
      "镉": 4872,
      "镌": 4873,
      "镍": 4874,
      "镑": 4875,
      "镓": 4876,
      "镖": 4877,
      "镗": 4878,
      "镜": 4879,
      "镦": 4880,
      "镧": 4881,
      "镫": 4882,
      "镬": 4883,
      "镯": 4884,
      "镰": 4885,
      "镳": 4886,
      "镶": 4887,
      "长": 4888,
      "閒": 4889,
      "闆": 4890,
      "门": 4891,
      "闩": 4892,
      "闪": 4893,
      "闭": 4894,
      "问": 4895,
      "闯": 4896,
      "闲": 4897,
      "间": 4898,
      "闵": 4899,
      "闷": 4900,
      "闸": 4901,
      "闹": 4902,
      "闺": 4903,
      "闻": 4904,
      "闽": 4905,
      "阀": 4906,
      "阁": 4907,
      "阂": 4908,
      "阅": 4909,
      "阈": 4910,
      "阉": 4911,
      "阎": 4912,
      "阐": 4913,
      "阔": 4914,
      "阖": 4915,
      "阜": 4916,
      "队": 4917,
      "阡": 4918,
      "阪": 4919,
      "阮": 4920,
      "阱": 4921,
      "防": 4922,
      "阳": 4923,
      "阴": 4924,
      "阵": 4925,
      "阶": 4926,
      "阻": 4927,
      "阿": 4928,
      "陀": 4929,
      "附": 4930,
      "际": 4931,
      "陆": 4932,
      "陇": 4933,
      "陈": 4934,
      "陋": 4935,
      "陌": 4936,
      "降": 4937,
      "限": 4938,
      "陕": 4939,
      "陛": 4940,
      "陡": 4941,
      "院": 4942,
      "除": 4943,
      "陨": 4944,
      "险": 4945,
      "陪": 4946,
      "陲": 4947,
      "陵": 4948,
      "陶": 4949,
      "陷": 4950,
      "隅": 4951,
      "隆": 4952,
      "隋": 4953,
      "隍": 4954,
      "随": 4955,
      "隐": 4956,
      "隔": 4957,
      "隘": 4958,
      "隙": 4959,
      "障": 4960,
      "隧": 4961,
      "隶": 4962,
      "隼": 4963,
      "隽": 4964,
      "难": 4965,
      "雀": 4966,
      "雁": 4967,
      "雄": 4968,
      "雅": 4969,
      "集": 4970,
      "雇": 4971,
      "雉": 4972,
      "雌": 4973,
      "雍": 4974,
      "雎": 4975,
      "雏": 4976,
      "雕": 4977,
      "雨": 4978,
      "雪": 4979,
      "雯": 4980,
      "雳": 4981,
      "零": 4982,
      "雷": 4983,
      "雹": 4984,
      "雾": 4985,
      "需": 4986,
      "霄": 4987,
      "霆": 4988,
      "震": 4989,
      "霉": 4990,
      "霍": 4991,
      "霎": 4992,
      "霏": 4993,
      "霓": 4994,
      "霖": 4995,
      "霜": 4996,
      "霞": 4997,
      "霭": 4998,
      "露": 4999,
      "霸": 5000,
      "霹": 5001,
      "霾": 5002,
      "青": 5003,
      "靓": 5004,
      "靖": 5005,
      "静": 5006,
      "靛": 5007,
      "非": 5008,
      "靠": 5009,
      "靡": 5010,
      "面": 5011,
      "靥": 5012,
      "革": 5013,
      "靴": 5014,
      "靶": 5015,
      "靼": 5016,
      "鞋": 5017,
      "鞍": 5018,
      "鞑": 5019,
      "鞘": 5020,
      "鞠": 5021,
      "鞣": 5022,
      "鞭": 5023,
      "韦": 5024,
      "韧": 5025,
      "韩": 5026,
      "韫": 5027,
      "韭": 5028,
      "音": 5029,
      "韵": 5030,
      "韶": 5031,
      "页": 5032,
      "顶": 5033,
      "顷": 5034,
      "项": 5035,
      "顺": 5036,
      "须": 5037,
      "顽": 5038,
      "顾": 5039,
      "顿": 5040,
      "颁": 5041,
      "颂": 5042,
      "预": 5043,
      "颅": 5044,
      "领": 5045,
      "颇": 5046,
      "颈": 5047,
      "颉": 5048,
      "颊": 5049,
      "颌": 5050,
      "颐": 5051,
      "频": 5052,
      "颓": 5053,
      "颖": 5054,
      "颗": 5055,
      "题": 5056,
      "颚": 5057,
      "颜": 5058,
      "额": 5059,
      "颞": 5060,
      "颠": 5061,
      "颡": 5062,
      "颤": 5063,
      "颦": 5064,
      "颧": 5065,
      "风": 5066,
      "飒": 5067,
      "飓": 5068,
      "飕": 5069,
      "飘": 5070,
      "飙": 5071,
      "飞": 5072,
      "食": 5073,
      "飨": 5074,
      "餐": 5075,
      "饥": 5076,
      "饨": 5077,
      "饪": 5078,
      "饭": 5079,
      "饮": 5080,
      "饯": 5081,
      "饰": 5082,
      "饱": 5083,
      "饲": 5084,
      "饵": 5085,
      "饶": 5086,
      "饺": 5087,
      "饼": 5088,
      "饽": 5089,
      "饿": 5090,
      "馀": 5091,
      "馁": 5092,
      "馄": 5093,
      "馅": 5094,
      "馆": 5095,
      "馈": 5096,
      "馋": 5097,
      "馏": 5098,
      "馑": 5099,
      "馒": 5100,
      "馕": 5101,
      "首": 5102,
      "馗": 5103,
      "香": 5104,
      "馥": 5105,
      "馨": 5106,
      "马": 5107,
      "驮": 5108,
      "驯": 5109,
      "驰": 5110,
      "驱": 5111,
      "驳": 5112,
      "驴": 5113,
      "驶": 5114,
      "驹": 5115,
      "驻": 5116,
      "驼": 5117,
      "驾": 5118,
      "驿": 5119,
      "骁": 5120,
      "骂": 5121,
      "骄": 5122,
      "骆": 5123,
      "骇": 5124,
      "骈": 5125,
      "骋": 5126,
      "验": 5127,
      "骏": 5128,
      "骑": 5129,
      "骗": 5130,
      "骚": 5131,
      "骝": 5132,
      "骠": 5133,
      "骡": 5134,
      "骤": 5135,
      "骨": 5136,
      "骰": 5137,
      "骶": 5138,
      "骷": 5139,
      "骸": 5140,
      "骹": 5141,
      "骺": 5142,
      "骼": 5143,
      "髂": 5144,
      "髅": 5145,
      "髋": 5146,
      "髌": 5147,
      "髓": 5148,
      "高": 5149,
      "髦": 5150,
      "髭": 5151,
      "髯": 5152,
      "髻": 5153,
      "鬃": 5154,
      "鬓": 5155,
      "鬣": 5156,
      "鬻": 5157,
      "鬼": 5158,
      "魁": 5159,
      "魂": 5160,
      "魄": 5161,
      "魅": 5162,
      "魆": 5163,
      "魇": 5164,
      "魏": 5165,
      "魔": 5166,
      "鯥": 5167,
      "鱆": 5168,
      "鱼": 5169,
      "鱿": 5170,
      "鲁": 5171,
      "鲆": 5172,
      "鲇": 5173,
      "鲈": 5174,
      "鲍": 5175,
      "鲎": 5176,
      "鲑": 5177,
      "鲔": 5178,
      "鲛": 5179,
      "鲜": 5180,
      "鲟": 5181,
      "鲠": 5182,
      "鲡": 5183,
      "鲣": 5184,
      "鲤": 5185,
      "鲨": 5186,
      "鲫": 5187,
      "鲱": 5188,
      "鲲": 5189,
      "鲳": 5190,
      "鲷": 5191,
      "鲸": 5192,
      "鲼": 5193,
      "鳃": 5194,
      "鳄": 5195,
      "鳌": 5196,
      "鳍": 5197,
      "鳏": 5198,
      "鳔": 5199,
      "鳕": 5200,
      "鳖": 5201,
      "鳗": 5202,
      "鳙": 5203,
      "鳞": 5204,
      "鳟": 5205,
      "鸟": 5206,
      "鸠": 5207,
      "鸡": 5208,
      "鸣": 5209,
      "鸥": 5210,
      "鸦": 5211,
      "鸪": 5212,
      "鸬": 5213,
      "鸭": 5214,
      "鸮": 5215,
      "鸯": 5216,
      "鸱": 5217,
      "鸳": 5218,
      "鸵": 5219,
      "鸽": 5220,
      "鸾": 5221,
      "鸿": 5222,
      "鹃": 5223,
      "鹅": 5224,
      "鹉": 5225,
      "鹊": 5226,
      "鹌": 5227,
      "鹎": 5228,
      "鹏": 5229,
      "鹑": 5230,
      "鹘": 5231,
      "鹚": 5232,
      "鹜": 5233,
      "鹟": 5234,
      "鹣": 5235,
      "鹤": 5236,
      "鹦": 5237,
      "鹧": 5238,
      "鹩": 5239,
      "鹪": 5240,
      "鹫": 5241,
      "鹬": 5242,
      "鹭": 5243,
      "鹰": 5244,
      "鹳": 5245,
      "鹿": 5246,
      "麋": 5247,
      "麒": 5248,
      "麓": 5249,
      "麝": 5250,
      "麟": 5251,
      "麦": 5252,
      "麻": 5253,
      "麽": 5254,
      "麾": 5255,
      "黄": 5256,
      "黉": 5257,
      "黍": 5258,
      "黎": 5259,
      "黏": 5260,
      "黑": 5261,
      "黒": 5262,
      "黔": 5263,
      "默": 5264,
      "黛": 5265,
      "黜": 5266,
      "黝": 5267,
      "黯": 5268,
      "黴": 5269,
      "鼎": 5270,
      "鼐": 5271,
      "鼓": 5272,
      "鼠": 5273,
      "鼩": 5274,
      "鼬": 5275,
      "鼱": 5276,
      "鼷": 5277,
      "鼻": 5278,
      "鼾": 5279,
      "齉": 5280,
      "齐": 5281,
      "齿": 5282,
      "龄": 5283,
      "龈": 5284,
      "龋": 5285,
      "龙": 5286,
      "龚": 5287,
      "龛": 5288,
      "龟": 5289,
      "ꄘ": 5290,
      "更": 5291,
      "車": 5292,
      "樂": 5293,
      "來": 5294,
      "露": 5295,
      "論": 5296,
      "諾": 5297,
      "率": 5298,
      "異": 5299,
      "便": 5300,
      "不": 5301,
      "參": 5302,
      "兩": 5303,
      "良": 5304,
      "女": 5305,
      "力": 5306,
      "歷": 5307,
      "年": 5308,
      "練": 5309,
      "連": 5310,
      "列": 5311,
      "念": 5312,
      "靈": 5313,
      "領": 5314,
      "了": 5315,
      "療": 5316,
      "流": 5317,
      "六": 5318,
      "律": 5319,
      "理": 5320,
      "裡": 5321,
      "林": 5322,
      "臨": 5323,
      "識": 5324,
      "茶": 5325,
      "切": 5326,
      "度": 5327,
      "行": 5328,
      "益": 5329,
      "福": 5330,
      "︰": 5331,
      "﹐": 5332,
      "﹑": 5333,
      "﹒": 5334,
      "﹕": 5335,
      "！": 5336,
      "＂": 5337,
      "＄": 5338,
      "％": 5339,
      "（": 5340,
      "）": 5341,
      "＊": 5342,
      "，": 5343,
      "．": 5344,
      "／": 5345,
      "０": 5346,
      "１": 5347,
      "２": 5348,
      "３": 5349,
      "４": 5350,
      "５": 5351,
      "：": 5352,
      "；": 5353,
      "＜": 5354,
      "＝": 5355,
      "＞": 5356,
      "？": 5357,
      "［": 5358,
      "］": 5359,
      "｀": 5360,
      "ａ": 5361,
      "ｂ": 5362,
      "ｃ": 5363,
      "ｓ": 5364,
      "｜": 5365,
      "～": 5366,
      "｢": 5367,
      "｣": 5368,
      "￡": 5369,
      "￥": 5370,
      "�": 5371,
      "in": 5372,
      "th": 5373,
      "en": 5374,
      "\":": 5375,
      "es": 5376,
      "is": 5377,
      "an": 5378,
      "er": 5379,
      "ch": 5380,
      "on": 5381,
      "the": 5382,
      "ese": 5383,
      "gl": 5384,
      "ish": 5385,
      "at": 5386,
      "chin": 5387,
      "glish": 5388,
      "\",": 5389,
      "chinese": 5390,
      "english": 5391,
      "\"}": 5392,
      "{\"": 5393,
      ".\",": 5394,
      "or": 5395,
      "。\"}": 5396,
      "al": 5397,
      "re": 5398,
      "ed": 5399,
      "of": 5400,
      "ou": 5401,
      "and": 5402,
      "ing": 5403,
      "ar": 5404,
      "to": 5405,
      "as": 5406,
      "it": 5407,
      "ion": 5408,
      "ic": 5409,
      "st": 5410,
      "ro": 5411,
      "le": 5412,
      "ent": 5413,
      "ct": 5414,
      "he": 5415,
      "ve": 5416,
      "il": 5417,
      "me": 5418,
      "de": 5419,
      "se": 5420,
      "for": 5421,
      "be": 5422,
      "co": 5423,
      "lo": 5424,
      "ly": 5425,
      "ation": 5426,
      "ce": 5427,
      "ig": 5428,
      "ad": 5429,
      "ur": 5430,
      "The": 5431,
      "ter": 5432,
      "mp": 5433,
      "con": 5434,
      "ver": 5435,
      "id": 5436,
      "ay": 5437,
      "ul": 5438,
      "us": 5439,
      "pro": 5440,
      "ut": 5441,
      "ra": 5442,
      "un": 5443,
      "ith": 5444,
      "no": 5445,
      "ge": 5446,
      "wh": 5447,
      "ol": 5448,
      "ir": 5449,
      "that": 5450,
      "are": 5451,
      "ab": 5452,
      "ess": 5453,
      "ment": 5454,
      "ap": 5455,
      "with": 5456,
      "you": 5457,
      "te": 5458,
      "li": 5459,
      "pe": 5460,
      "so": 5461,
      "ne": 5462,
      "ma": 5463,
      "est": 5464,
      "ac": 5465,
      "we": 5466,
      "su": 5467,
      "ri": 5468,
      "ke": 5469,
      "od": 5470,
      "\\\"": 5471,
      "ere": 5472,
      "per": 5473,
      "sh": 5474,
      "ld": 5475,
      "po": 5476,
      "ex": 5477,
      "fe": 5478,
      "ts": 5479,
      "ate": 5480,
      "ill": 5481,
      "ity": 5482,
      "all": 5483,
      "pl": 5484,
      "ha": 5485,
      "ti": 5486,
      "mo": 5487,
      "igh": 5488,
      "qu": 5489,
      "di": 5490,
      "am": 5491,
      "was": 5492,
      "by": 5493,
      "oun": 5494,
      "ive": 5495,
      "ers": 5496,
      "his": 5497,
      "tr": 5498,
      "一个": 5499,
      "ow": 5500,
      "out": 5501,
      "ta": 5502,
      "res": 5503,
      "ll": 5504,
      "one": 5505,
      "man": 5506,
      "ci": 5507,
      "ure": 5508,
      "op": 5509,
      "ther": 5510,
      "can": 5511,
      "rom": 5512,
      "du": 5513,
      "00": 5514,
      "wor": 5515,
      "our": 5516,
      "ction": 5517,
      "have": 5518,
      "from": 5519,
      "go": 5520,
      "我们": 5521,
      "art": 5522,
      "em": 5523,
      "ist": 5524,
      "sa": 5525,
      "In": 5526,
      "ical": 5527,
      "has": 5528,
      "this": 5529,
      "comp": 5530,
      "ant": 5531,
      "om": 5532,
      "im": 5533,
      "str": 5534,
      "ould": 5535,
      "end": 5536,
      "ag": 5537,
      "ore": 5538,
      "cl": 5539,
      "act": 5540,
      "um": 5541,
      "ong": 5542,
      "Ch": 5543,
      "pr": 5544,
      "if": 5545,
      "not": 5546,
      "ine": 5547,
      "ight": 5548,
      "ort": 5549,
      "et": 5550,
      "ard": 5551,
      "gh": 5552,
      "iz": 5553,
      "whi": 5554,
      "up": 5555,
      "do": 5556,
      "com": 5557,
      "ear": 5558,
      "low": 5559,
      "but": 5560,
      "ang": 5561,
      "ud": 5562,
      "ast": 5563,
      "ated": 5564,
      "ies": 5565,
      "ind": 5566,
      "ph": 5567,
      "will": 5568,
      "他们": 5569,
      "ff": 5570,
      "ous": 5571,
      "可以": 5572,
      "ie": 5573,
      "sy": 5574,
      "der": 5575,
      "ca": 5576,
      "dis": 5577,
      "ide": 5578,
      "ign": 5579,
      "form": 5580,
      "its": 5581,
      "gr": 5582,
      "ough": 5583,
      "bo": 5584,
      "ice": 5585,
      "king": 5586,
      "imp": 5587,
      "ound": 5588,
      "age": 5589,
      "cre": 5590,
      "were": 5591,
      "研究": 5592,
      "el": 5593,
      "use": 5594,
      "ust": 5595,
      "which": 5596,
      "Th": 5597,
      "ans": 5598,
      "int": 5599,
      "able": 5600,
      "ence": 5601,
      "iv": 5602,
      "cont": 5603,
      "ks": 5604,
      "ally": 5605,
      "ass": 5606,
      "进行": 5607,
      "ition": 5608,
      "Chin": 5609,
      "ach": 5610,
      "more": 5611,
      "pre": 5612,
      "ho": 5613,
      "your": 5614,
      "now": 5615,
      "ace": 5616,
      "cess": 5617,
      "ef": 5618,
      "ater": 5619,
      "ble": 5620,
      "very": 5621,
      "ect": 5622,
      "ial": 5623,
      "ser": 5624,
      "they": 5625,
      "ance": 5626,
      "ob": 5627,
      "spe": 5628,
      "their": 5629,
      "stem": 5630,
      "some": 5631,
      "ary": 5632,
      "sp": 5633,
      "It": 5634,
      "log": 5635,
      "ack": 5636,
      "ain": 5637,
      "ev": 5638,
      "wo": 5639,
      "ase": 5640,
      "ia": 5641,
      "way": 5642,
      "ens": 5643,
      "ty": 5644,
      "other": 5645,
      "new": 5646,
      "fect": 5647,
      "who": 5648,
      "also": 5649,
      "time": 5650,
      "year": 5651,
      "des": 5652,
      "cor": 5653,
      "br": 5654,
      "day": 5655,
      "tra": 5656,
      "方法": 5657,
      "system": 5658,
      "ree": 5659,
      "cent": 5660,
      "ject": 5661,
      "bl": 5662,
      "my": 5663,
      "inter": 5664,
      "This": 5665,
      "min": 5666,
      "ip": 5667,
      "own": 5668,
      "ents": 5669,
      "ite": 5670,
      "off": 5671,
      "ep": 5672,
      "中国": 5673,
      "velo": 5674,
      "An": 5675,
      "af": 5676,
      "ult": 5677,
      "ck": 5678,
      "any": 5679,
      "said": 5680,
      "19": 5681,
      "work": 5682,
      "high": 5683,
      "like": 5684,
      "par": 5685,
      "pos": 5686,
      "been": 5687,
      "over": 5688,
      "这个": 5689,
      "ory": 5690,
      "200": 5691,
      "mar": 5692,
      "port": 5693,
      "had": 5694,
      "ople": 5695,
      "系统": 5696,
      "her": 5697,
      "ations": 5698,
      "ber": 5699,
      "mon": 5700,
      "about": 5701,
      "thod": 5702,
      "av": 5703,
      "没有": 5704,
      "velop": 5705,
      "gen": 5706,
      "than": 5707,
      "ue": 5708,
      "公司": 5709,
      "We": 5710,
      "?\",": 5711,
      "cur": 5712,
      "问题": 5713,
      "into": 5714,
      "part": 5715,
      "ok": 5716,
      "old": 5717,
      "gra": 5718,
      "fl": 5719,
      "develop": 5720,
      "dr": 5721,
      "coun": 5722,
      "produ": 5723,
      "them": 5724,
      "there": 5725,
      "people": 5726,
      "使用": 5727,
      "ful": 5728,
      "bet": 5729,
      "ire": 5730,
      "Wh": 5731,
      "ces": 5732,
      "可能": 5733,
      "lect": 5734,
      "ors": 5735,
      "10": 5736,
      "fir": 5737,
      "一种": 5738,
      "stru": 5739,
      "mer": 5740,
      "rel": 5741,
      "thing": 5742,
      "tain": 5743,
      "reat": 5744,
      "cy": 5745,
      "bas": 5746,
      "He": 5747,
      "ced": 5748,
      "；\"}": 5749,
      "eng": 5750,
      "工作": 5751,
      "aly": 5752,
      "diff": 5753,
      "这些": 5754,
      "China": 5755,
      "分析": 5756,
      "ting": 5757,
      "used": 5758,
      "method": 5759,
      "when": 5760,
      "20": 5761,
      "au": 5762,
      "？\"}": 5763,
      "inv": 5764,
      "arch": 5765,
      "ions": 5766,
      "如果": 5767,
      "row": 5768,
      "get": 5769,
      "ments": 5770,
      "car": 5771,
      "美国": 5772,
      "ating": 5773,
      "ding": 5774,
      "自己": 5775,
      "os": 5776,
      "two": 5777,
      "ates": 5778,
      "effect": 5779,
      "fore": 5780,
      "ms": 5781,
      "中的": 5782,
      "通过": 5783,
      "stud": 5784,
      "say": 5785,
      "cus": 5786,
      "ning": 5787,
      "bu": 5788,
      "would": 5789,
      "know": 5790,
      "ot": 5791,
      "ication": 5792,
      "under": 5793,
      "peri": 5794,
      "med": 5795,
      "she": 5796,
      "To": 5797,
      "ility": 5798,
      "cal": 5799,
      "only": 5800,
      "pres": 5801,
      "发展": 5802,
      "after": 5803,
      "try": 5804,
      "sel": 5805,
      "sur": 5806,
      "most": 5807,
      "cial": 5808,
      "just": 5809,
      "因为": 5810,
      "air": 5811,
      "ry": 5812,
      "vers": 5813,
      "aper": 5814,
      "first": 5815,
      "app": 5816,
      "prov": 5817,
      "ak": 5818,
      "long": 5819,
      "设计": 5820,
      "但是": 5821,
      "ics": 5822,
      "提供": 5823,
      "col": 5824,
      "come": 5825,
      "fo": 5826,
      "技术": 5827,
      "已经": 5828,
      "analy": 5829,
      "他的": 5830,
      "del": 5831,
      "pt": 5832,
      "rough": 5833,
      "char": 5834,
      "should": 5835,
      "影响": 5836,
      "ise": 5837,
      "ink": 5838,
      "main": 5839,
      "ame": 5840,
      "的人": 5841,
      "cho": 5842,
      "ian": 5843,
      "vel": 5844,
      "process": 5845,
      "应用": 5846,
      "ational": 5847,
      "cause": 5848,
      "cle": 5849,
      "chan": 5850,
      "tech": 5851,
      "son": 5852,
      "reg": 5853,
      "could": 5854,
      "what": 5855,
      "cer": 5856,
      "fin": 5857,
      "pol": 5858,
      "一些": 5859,
      "ious": 5860,
      "ick": 5861,
      "St": 5862,
      "differ": 5863,
      "cond": 5864,
      "good": 5865,
      "需要": 5866,
      "paper": 5867,
      "serv": 5868,
      "aw": 5869,
      "trans": 5870,
      "comm": 5871,
      "ile": 5872,
      "结果": 5873,
      "contro": 5874,
      "design": 5875,
      "fun": 5876,
      "may": 5877,
      "以及": 5878,
      "ual": 5879,
      "ative": 5880,
      "tur": 5881,
      "such": 5882,
      "So": 5883,
      "As": 5884,
      "ular": 5885,
      "show": 5886,
      "But": 5887,
      "ving": 5888,
      "val": 5889,
      "主要": 5890,
      "sub": 5891,
      "water": 5892,
      "时间": 5893,
      "him": 5894,
      "tri": 5895,
      "well": 5896,
      "mat": 5897,
      "tal": 5898,
      "fer": 5899,
      "sis": 5900,
      "less": 5901,
      "And": 5902,
      "hu": 5903,
      "cap": 5904,
      "wer": 5905,
      "就是": 5906,
      "现在": 5907,
      "fact": 5908,
      "目的": 5909,
      "rit": 5910,
      "play": 5911,
      "make": 5912,
      "ted": 5913,
      "stand": 5914,
      "什么": 5915,
      "本文": 5916,
      "many": 5917,
      "through": 5918,
      "back": 5919,
      "les": 5920,
      "世界": 5921,
      "see": 5922,
      "具有": 5923,
      "then": 5924,
      "sup": 5925,
      "经济": 5926,
      "ose": 5927,
      "pat": 5928,
      "的一": 5929,
      "sol": 5930,
      "vis": 5931,
      "数据": 5932,
      "read": 5933,
      "国家": 5934,
      "所有": 5935,
      "ween": 5936,
      "不同": 5937,
      "requ": 5938,
      "dat": 5939,
      "lar": 5940,
      "ple": 5941,
      "部分": 5942,
      "ities": 5943,
      "between": 5944,
      "--": 5945,
      "need": 5946,
      "years": 5947,
      "gu": 5948,
      "world": 5949,
      "出了": 5950,
      "Un": 5951,
      "ved": 5952,
      "ric": 5953,
      "development": 5954,
      "test": 5955,
      "down": 5956,
      "ily": 5957,
      "put": 5958,
      "ures": 5959,
      "ters": 5960,
      "life": 5961,
      "press": 5962,
      "hel": 5963,
      "tim": 5964,
      "ru": 5965,
      "uring": 5966,
      "服务": 5967,
      "ath": 5968,
      "hand": 5969,
      "clo": 5970,
      "amp": 5971,
      "self": 5972,
      "logy": 5973,
      "call": 5974,
      "how": 5975,
      "cri": 5976,
      "sm": 5977,
      "sign": 5978,
      "tle": 5979,
      "struct": 5980,
      "esearch": 5981,
      "set": 5982,
      "结构": 5983,
      "Ob": 5984,
      "ron": 5985,
      "你的": 5986,
      "tern": 5987,
      "ib": 5988,
      "io": 5989,
      "incl": 5990,
      "这样": 5991,
      "ins": 5992,
      "这种": 5993,
      "net": 5994,
      "ality": 5995,
      "xt": 5996,
      "model": 5997,
      "If": 5998,
      "控制": 5999,
      "oup": 6000,
      "Chinese": 6001,
      "You": 6002,
      "every": 6003,
      "different": 6004,
      "fa": 6005,
      "oper": 6006,
      "made": 6007,
      "conom": 6008,
      "ident": 6009,
      "ism": 6010,
      "vie": 6011,
      "ris": 6012,
      "ran": 6013,
      "For": 6014,
      "land": 6015,
      "study": 6016,
      "过程": 6017,
      "重要": 6018,
      "though": 6019,
      "ship": 6020,
      "sin": 6021,
      "tion": 6022,
      "line": 6023,
      "these": 6024,
      "red": 6025,
      "top": 6026,
      "Be": 6027,
      "ves": 6028,
      "我的": 6029,
      "oft": 6030,
      "开始": 6031,
      "ural": 6032,
      "even": 6033,
      "ons": 6034,
      "\"\\\"": 6035,
      "ket": 6036,
      "ults": 6037,
      "ized": 6038,
      "gener": 6039,
      "时候": 6040,
      "ield": 6041,
      "\"“": 6042,
      "采用": 6043,
      "proble": 6044,
      "ss": 6045,
      "uch": 6046,
      "ization": 6047,
      "ven": 6048,
      "作用": 6049,
      "认为": 6050,
      "econom": 6051,
      "ability": 6052,
      "invest": 6053,
      "don": 6054,
      "方面": 6055,
      "based": 6056,
      "大的": 6057,
      "ature": 6058,
      "hy": 6059,
      "indu": 6060,
      "There": 6061,
      "——": 6062,
      "using": 6063,
      "ward": 6064,
      "cts": 6065,
      "gan": 6066,
      "because": 6067,
      "control": 6068,
      "作为": 6069,
      "face": 6070,
      "产品": 6071,
      "data": 6072,
      "research": 6073,
      "buil": 6074,
      "上的": 6075,
      "发现": 6076,
      "mag": 6077,
      ";\",": 6078,
      "好的": 6079,
      "mis": 6080,
      "lit": 6081,
      "其他": 6082,
      "ited": 6083,
      "ness": 6084,
      "iness": 6085,
      "help": 6086,
      "Co": 6087,
      "Con": 6088,
      "pu": 6089,
      "到了": 6090,
      "管理": 6091,
      "！\"}": 6092,
      "formation": 6093,
      "incre": 6094,
      "mem": 6095,
      "ract": 6096,
      "where": 6097,
      "ings": 6098,
      "ste": 6099,
      "elect": 6100,
      "cons": 6101,
      "这是": 6102,
      "pri": 6103,
      "成为": 6104,
      "add": 6105,
      "jective": 6106,
      "ution": 6107,
      "plan": 6108,
      "present": 6109,
      "appl": 6110,
      "experi": 6111,
      "ix": 6112,
      "人的": 6113,
      "chil": 6114,
      "bus": 6115,
      "知道": 6116,
      "rect": 6117,
      "again": 6118,
      "政府": 6119,
      "这一": 6120,
      "three": 6121,
      "turn": 6122,
      "view": 6123,
      "dist": 6124,
      "处理": 6125,
      "power": 6126,
      "gy": 6127,
      "mal": 6128,
      "ching": 6129,
      "vir": 6130,
      "!\",": 6131,
      "包括": 6132,
      "组织": 6133,
      "num": 6134,
      "生活": 6135,
      "each": 6136,
      "great": 6137,
      "led": 6138,
      "stu": 6139,
      "let": 6140,
      "found": 6141,
      "head": 6142,
      "acter": 6143,
      "much": 6144,
      "als": 6145,
      "take": 6146,
      "order": 6147,
      "发生": 6148,
      "ds": 6149,
      "var": 6150,
      "市场": 6151,
      "生产": 6152,
      "gle": 6153,
      "light": 6154,
      ").\",": 6155,
      "Ne": 6156,
      "bod": 6157,
      "ible": 6158,
      "sed": 6159,
      "want": 6160,
      "ner": 6161,
      "关系": 6162,
      "同时": 6163,
      "对于": 6164,
      "介绍": 6165,
      "进行了": 6166,
      "或者": 6167,
      "hou": 6168,
      "情况": 6169,
      "非常": 6170,
      "che": 6171,
      "temp": 6172,
      "right": 6173,
      "ft": 6174,
      "存在": 6175,
      "ices": 6176,
      "fam": 6177,
      "import": 6178,
      "mod": 6179,
      "point": 6180,
      "信息": 6181,
      "ash": 6182,
      "level": 6183,
      "gover": 6184,
      "ways": 6185,
      "att": 6186,
      "50": 6187,
      "Sh": 6188,
      "real": 6189,
      "alth": 6190,
      "rodu": 6191,
      "class": 6192,
      "says": 6193,
      "kind": 6194,
      "12": 6195,
      "fol": 6196,
      "sk": 6197,
      "模型": 6198,
      "ared": 6199,
      "vent": 6200,
      "flu": 6201,
      "：“": 6202,
      "000": 6203,
      "did": 6204,
      "必须": 6205,
      "being": 6206,
      "equ": 6207,
      "ied": 6208,
      "ient": 6209,
      "non": 6210,
      "cell": 6211,
      "small": 6212,
      "group": 6213,
      "kes": 6214,
      "ually": 6215,
      "before": 6216,
      "eas": 6217,
      "last": 6218,
      "govern": 6219,
      "jo": 6220,
      "grow": 6221,
      "ys": 6222,
      "计算": 6223,
      "选择": 6224,
      "Objective": 6225,
      "ffic": 6226,
      "function": 6227,
      "They": 6228,
      "ital": 6229,
      "ave": 6230,
      "state": 6231,
      "discus": 6232,
      "任何": 6233,
      "ulation": 6234,
      "includ": 6235,
      "治疗": 6236,
      "person": 6237,
      "speci": 6238,
      "了一": 6239,
      "ency": 6240,
      "ize": 6241,
      "lead": 6242,
      "too": 6243,
      "人们": 6244,
      "它们": 6245,
      "field": 6246,
      "impro": 6247,
      "war": 6248,
      "”\"}": 6249,
      "ific": 6250,
      "pect": 6251,
      "When": 6252,
      "those": 6253,
      "30": 6254,
      "techno": 6255,
      "run": 6256,
      "cut": 6257,
      "社会": 6258,
      "cept": 6259,
      "oc": 6260,
      "ased": 6261,
      "while": 6262,
      "must": 6263,
      "por": 6264,
      "新的": 6265,
      "same": 6266,
      "ele": 6267,
      "企业": 6268,
      "think": 6269,
      "表明": 6270,
      "ason": 6271,
      "still": 6272,
      "both": 6273,
      "chool": 6274,
      "flow": 6275,
      "细胞": 6276,
      "用于": 6277,
      "results": 6278,
      "ener": 6279,
      "comple": 6280,
      "是一个": 6281,
      "meas": 6282,
      "那些": 6283,
      "En": 6284,
      "ban": 6285,
      "uc": 6286,
      "vi": 6287,
      "功能": 6288,
      "icle": 6289,
      "curr": 6290,
      "meric": 6291,
      "Re": 6292,
      "\\\"\",": 6293,
      "introdu": 6294,
      "character": 6295,
      "emp": 6296,
      "不能": 6297,
      "之间": 6298,
      "表示": 6299,
      "ulti": 6300,
      "15": 6301,
      "bre": 6302,
      "far": 6303,
      "利用": 6304,
      "studi": 6305,
      "fic": 6306,
      "nor": 6307,
      "大学": 6308,
      "que": 6309,
      "11": 6310,
      "Americ": 6311,
      "ger": 6312,
      "ically": 6313,
      "地区": 6314,
      "change": 6315,
      "gest": 6316,
      "treat": 6317,
      "两个": 6318,
      "adv": 6319,
      "cording": 6320,
      "Al": 6321,
      "产生": 6322,
      "提高": 6323,
      "home": 6324,
      "lim": 6325,
      "place": 6326,
      "环境": 6327,
      "要求": 6328,
      "open": 6329,
      "然后": 6330,
      "find": 6331,
      "giv": 6332,
      "不会": 6333,
      "来的": 6334,
      "enter": 6335,
      "bed": 6336,
      "publ": 6337,
      "Af": 6338,
      "dra": 6339,
      "有效": 6340,
      "nam": 6341,
      "ug": 6342,
      "实现": 6343,
      "第一": 6344,
      "look": 6345,
      "quality": 6346,
      "cu": 6347,
      "网络": 6348,
      "能够": 6349,
      "Se": 6350,
      "fil": 6351,
      "sit": 6352,
      "安全": 6353,
      "Mr": 6354,
      "gre": 6355,
      "prote": 6356,
      "Li": 6357,
      "性的": 6358,
      "dep": 6359,
      "On": 6360,
      "ivers": 6361,
      "基础": 6362,
      "是一": 6363,
      "建立": 6364,
      "得到": 6365,
      "ists": 6366,
      "large": 6367,
      "mor": 6368,
      "la": 6369,
      "sion": 6370,
      "理论": 6371,
      "很多": 6372,
      "正在": 6373,
      "during": 6374,
      "的时候": 6375,
      "start": 6376,
      "appe": 6377,
      "wee": 6378,
      "199": 6379,
      "fri": 6380,
      "ides": 6381,
      "country": 6382,
      "vol": 6383,
      "并且": 6384,
      "探讨": 6385,
      "计划": 6386,
      "许多": 6387,
      "ext": 6388,
      "resp": 6389,
      "Ho": 6390,
      "big": 6391,
      "孩子": 6392,
      "chang": 6393,
      "hist": 6394,
      "body": 6395,
      "national": 6396,
      "因此": 6397,
      "如何": 6398,
      "所以": 6399,
      "market": 6400,
      "follow": 6401,
      "为了": 6402,
      "rest": 6403,
      "At": 6404,
      "mic": 6405,
      "显示": 6406,
      "important": 6407,
      "company": 6408,
      "aterial": 6409,
      "18": 6410,
      "Ar": 6411,
      "ict": 6412,
      "direct": 6413,
      "Me": 6414,
      "应该": 6415,
      "由于": 6416,
      "business": 6417,
      "相关": 6418,
      "程序": 6419,
      "自己的": 6420,
      "lin": 6421,
      "government": 6422,
      "school": 6423,
      "dri": 6424,
      "地方": 6425,
      "的影响": 6426,
      "目前": 6427,
      "De": 6428,
      "中心": 6429,
      "ider": 6430,
      "我们的": 6431,
      "prof": 6432,
      "human": 6433,
      "structure": 6434,
      "friend": 6435,
      "运动": 6436,
      "ars": 6437,
      "cult": 6438,
      "实验": 6439,
      "ium": 6440,
      "ton": 6441,
      "教育": 6442,
      "根据": 6443,
      "而且": 6444,
      "起来": 6445,
      "inst": 6446,
      "loc": 6447,
      "cour": 6448,
      "他们的": 6449,
      "application": 6450,
      "学生": 6451,
      "information": 6452,
      "pass": 6453,
      "希望": 6454,
      "ense": 6455,
      "Pro": 6456,
      "美元": 6457,
      "获得": 6458,
      "dro": 6459,
      "second": 6460,
      "trad": 6461,
      "imple": 6462,
      "graph": 6463,
      "bro": 6464,
      "love": 6465,
      "da": 6466,
      "sing": 6467,
      "ases": 6468,
      "exp": 6469,
      "dren": 6470,
      "方式": 6471,
      "around": 6472,
      "leg": 6473,
      "ided": 6474,
      "examp": 6475,
      "omen": 6476,
      "came": 6477,
      "material": 6478,
      "支持": 6479,
      "men": 6480,
      "sc": 6481,
      "side": 6482,
      "ask": 6483,
      "issu": 6484,
      "technology": 6485,
      "之一": 6486,
      "变化": 6487,
      "能力": 6488,
      "become": 6489,
      "key": 6490,
      "的是": 6491,
      "ark": 6492,
      "rain": 6493,
      "sum": 6494,
      "partic": 6495,
      "times": 6496,
      "文化": 6497,
      "organ": 6498,
      "does": 6499,
      "New": 6500,
      "action": 6501,
      "anti": 6502,
      "number": 6503,
      "hard": 6504,
      "pot": 6505,
      "illion": 6506,
      "开发": 6507,
      "定的": 6508,
      "科学": 6509,
      "ribut": 6510,
      "little": 6511,
      "She": 6512,
      "ail": 6513,
      "law": 6514,
      "usion": 6515,
      "proper": 6516,
      "logical": 6517,
      "）。\"}": 6518,
      "ref": 6519,
      "ross": 6520,
      "lot": 6521,
      "soci": 6522,
      "。”\"}": 6523,
      "国际": 6524,
      "有一": 6525,
      "还是": 6526,
      "ator": 6527,
      "analysis": 6528,
      "analyz": 6529,
      "aut": 6530,
      "uro": 6531,
      "ene": 6532,
      "month": 6533,
      "happ": 6534,
      "health": 6535,
      "commun": 6536,
      ".\"}": 6537,
      "wever": 6538,
      "pop": 6539,
      "expl": 6540,
      "agement": 6541,
      "current": 6542,
      "基于": 6543,
      "活动": 6544,
      "better": 6545,
      "condition": 6546,
      "children": 6547,
      "With": 6548,
      "dy": 6549,
      "here": 6550,
      "report": 6551,
      "pur": 6552,
      "测试": 6553,
      "量的": 6554,
      "tom": 6555,
      "city": 6556,
      "一样": 6557,
      "techn": 6558,
      "rad": 6559,
      "rate": 6560,
      "那么": 6561,
      "called": 6562,
      "mil": 6563,
      "ush": 6564,
      "project": 6565,
      "contin": 6566,
      "出现": 6567,
      "ute": 6568,
      "clear": 6569,
      "ional": 6570,
      "ake": 6571,
      "sim": 6572,
      "dec": 6573,
      "loy": 6574,
      "cir": 6575,
      "在一": 6576,
      "ord": 6577,
      "stri": 6578,
      "gram": 6579,
      "service": 6580,
      "support": 6581,
      "list": 6582,
      "room": 6583,
      "suc": 6584,
      "type": 6585,
      "investig": 6586,
      "viron": 6587,
      ".\\\"\",": 6588,
      "care": 6589,
      "ey": 6590,
      "ped": 6591,
      "pract": 6592,
      "用户": 6593,
      "appro": 6594,
      "result": 6595,
      "blo": 6596,
      "sci": 6597,
      "城市": 6598,
      "educ": 6599,
      "ished": 6600,
      "ground": 6601,
      "cing": 6602,
      "之后": 6603,
      "sever": 6604,
      "special": 6605,
      "oth": 6606,
      "tic": 6607,
      "增加": 6608,
      "提出了": 6609,
      "看到": 6610,
      "feel": 6611,
      "inte": 6612,
      "cover": 6613,
      "name": 6614,
      "going": 6615,
      "bon": 6616,
      "effic": 6617,
      "”。\"}": 6618,
      "cost": 6619,
      "mage": 6620,
      "你们": 6621,
      "喜欢": 6622,
      "最后": 6623,
      "生物": 6624,
      "Le": 6625,
      "有关": 6626,
      "结论": 6627,
      "tail": 6628,
      "comb": 6629,
      "poss": 6630,
      "oil": 6631,
      "是在": 6632,
      "lear": 6633,
      "sure": 6634,
      "best": 6635,
      "形成": 6636,
      "ched": 6637,
      "term": 6638,
      "without": 6639,
      "其中": 6640,
      "allow": 6641,
      "mental": 6642,
      "效果": 6643,
      "never": 6644,
      "require": 6645,
      "house": 6646,
      "ince": 6647,
      "area": 6648,
      "production": 6649,
      "mone": 6650,
      "历史": 6651,
      "性能": 6652,
      "free": 6653,
      "hal": 6654,
      "sto": 6655,
      "原因": 6656,
      "提出": 6657,
      "redu": 6658,
      "itive": 6659,
      "few": 6660,
      "14": 6661,
      "multi": 6662,
      "投资": 6663,
      "这里": 6664,
      "outh": 6665,
      "problem": 6666,
      "four": 6667,
      "帮助": 6668,
      "第二": 6669,
      "activ": 6670,
      "relation": 6671,
      "example": 6672,
      "16": 6673,
      "another": 6674,
      "stry": 6675,
      "sal": 6676,
      "设备": 6677,
      "项目": 6678,
      "What": 6679,
      "struction": 6680,
      "food": 6681,
      "fac": 6682,
      "ients": 6683,
      "hold": 6684,
      "是否": 6685,
      "材料": 6686,
      "目标": 6687,
      "bur": 6688,
      "soft": 6689,
      "标准": 6690,
      "div": 6691,
      "ub": 6692,
      "人员": 6693,
      "价值": 6694,
      "工程": 6695,
      "itional": 6696,
      "fur": 6697,
      "ier": 6698,
      "来自": 6699,
      "解决": 6700,
      "ties": 6701,
      "value": 6702,
      "iversity": 6703,
      "Ex": 6704,
      "东西": 6705,
      "都是": 6706,
      "team": 6707,
      "实际": 6708,
      "电子": 6709,
      "environ": 6710,
      "offic": 6711,
      "products": 6712,
      "比较": 6713,
      "advan": 6714,
      "ling": 6715,
      "uan": 6716,
      "基本": 6717,
      "更多": 6718,
      "next": 6719,
      "operation": 6720,
      "年的": 6721,
      "ants": 6722,
      "ering": 6723,
      "load": 6724,
      "move": 6725,
      "ude": 6726,
      "went": 6727,
      "”，": 6728,
      "That": 6729,
      "industry": 6730,
      "No": 6731,
      "fra": 6732,
      "give": 6733,
      "whe": 6734,
      "ken": 6735,
      "传统": 6736,
      "den": 6737,
      "ware": 6738,
      "always": 6739,
      "book": 6740,
      "ls": 6741,
      "反应": 6742,
      "模式": 6743,
      "signific": 6744,
      "against": 6745,
      "US": 6746,
      "ann": 6747,
      "keep": 6748,
      "ready": 6749,
      "management": 6750,
      "full": 6751,
      "might": 6752,
      "pa": 6753,
      "患者": 6754,
      "条件": 6755,
      "13": 6756,
      "Mo": 6757,
      "sl": 6758,
      "writ": 6759,
      "行为": 6760,
      "讨论": 6761,
      "介绍了": 6762,
      "rat": 6763,
      "wind": 6764,
      "的大": 6765,
      "一直": 6766,
      "调查": 6767,
      "thes": 6768,
      "meet": 6769,
      "dev": 6770,
      "posed": 6771,
      "case": 6772,
      "主义": 6773,
      "因素": 6774,
      "朋友": 6775,
      "还有": 6776,
      "unt": 6777,
      "ably": 6778,
      "quest": 6779,
      "things": 6780,
      "patients": 6781,
      "problems": 6782,
      "ai": 6783,
      "cra": 6784,
      "健康": 6785,
      "资源": 6786,
      "ences": 6787,
      "contain": 6788,
      "position": 6789,
      "students": 6790,
      "dom": 6791,
      "ource": 6792,
      "got": 6793,
      "public": 6794,
      "auth": 6795,
      "意义": 6796,
      "mid": 6797,
      "ses": 6798,
      "descri": 6799,
      "success": 6800,
      "cou": 6801,
      "won": 6802,
      "article": 6803,
      "ages": 6804,
      "treatment": 6805,
      "ern": 6806,
      "common": 6807,
      "including": 6808,
      "17": 6809,
      "ged": 6810,
      "的事": 6811,
      "beli": 6812,
      "often": 6813,
      "characterist": 6814,
      "pay": 6815,
      "ues": 6816,
      "她的": 6817,
      "英国": 6818,
      "spect": 6819,
      "ox": 6820,
      "个人": 6821,
      "mean": 6822,
      "mechan": 6823,
      "conf": 6824,
      "machin": 6825,
      "保护": 6826,
      "的方法": 6827,
      "随着": 6828,
      "influ": 6829,
      "abl": 6830,
      "money": 6831,
      "Gu": 6832,
      "ges": 6833,
      "mus": 6834,
      "今天": 6835,
      "内容": 6836,
      "我国": 6837,
      "试验": 6838,
      "ively": 6839,
      "away": 6840,
      "ned": 6841,
      "也是": 6842,
      "成功": 6843,
      "甚至": 6844,
      "ety": 6845,
      "space": 6846,
      "ax": 6847,
      "银行": 6848,
      "erature": 6849,
      "ential": 6850,
      "und": 6851,
      "related": 6852,
      "az": 6853,
      "来说": 6854,
      "shall": 6855,
      "tries": 6856,
      "My": 6857,
      "ique": 6858,
      "lay": 6859,
      "的一个": 6860,
      "content": 6861,
      "week": 6862,
      "sw": 6863,
      "sil": 6864,
      "vo": 6865,
      "recent": 6866,
      "uses": 6867,
      "perfor": 6868,
      "percent": 6869,
      "prin": 6870,
      "product": 6871,
      "economic": 6872,
      "improve": 6873,
      "100": 6874,
      "bit": 6875,
      "只有": 6876,
      "各种": 6877,
      "学习": 6878,
      "ined": 6879,
      "building": 6880,
      "bor": 6881,
      "ich": 6882,
      "wide": 6883,
      "，“": 6884,
      "termin": 6885,
      "bar": 6886,
      "关于": 6887,
      "空间": 6888,
      "ination": 6889,
      "ird": 6890,
      "working": 6891,
      "jor": 6892,
      "mit": 6893,
      "chem": 6894,
      "rele": 6895,
      "left": 6896,
      "period": 6897,
      "Some": 6898,
      "consider": 6899,
      "studied": 6900,
      "mind": 6901,
      "然而": 6902,
      "post": 6903,
      "如果你": 6904,
      "energy": 6905,
      "depend": 6906,
      "Res": 6907,
      "program": 6908,
      "tea": 6909,
      "sug": 6910,
      "mance": 6911,
      "nat": 6912,
      "不过": 6913,
      "文件": 6914,
      "），": 6915,
      "angu": 6916,
      "since": 6917,
      "25": 6918,
      "40": 6919,
      "ten": 6920,
      "观察": 6921,
      "质量": 6922,
      "ane": 6923,
      "local": 6924,
      "系统的": 6925,
      "ength": 6926,
      "),": 6927,
      "80": 6928,
      "uation": 6929,
      "了一个": 6930,
      "拥有": 6931,
      "方案": 6932,
      "met": 6933,
      "loo": 6934,
      "bal": 6935,
      "了解": 6936,
      "度的": 6937,
      "告诉": 6938,
      "特别": 6939,
      "结合": 6940,
      "theory": 6941,
      "aster": 6942,
      "near": 6943,
      "typ": 6944,
      "family": 6945,
      "After": 6946,
      "gin": 6947,
      "接受": 6948,
      "自然": 6949,
      "youn": 6950,
      "text": 6951,
      "growth": 6952,
      "aim": 6953,
      "…\",": 6954,
      "体的": 6955,
      "艺术": 6956,
      "stat": 6957,
      "syn": 6958,
      "All": 6959,
      "One": 6960,
      "gn": 6961,
      "ral": 6962,
      "只是": 6963,
      "改变": 6964,
      "ury": 6965,
      "ards": 6966,
      "水平": 6967,
      "interest": 6968,
      "cat": 6969,
      "women": 6970,
      "之前": 6971,
      "全球": 6972,
      "的研究": 6973,
      "ining": 6974,
      "apan": 6975,
      "ever": 6976,
      "gly": 6977,
      "really": 6978,
      "heart": 6979,
      "major": 6980,
      "fut": 6981,
      "night": 6982,
      "aring": 6983,
      "pho": 6984,
      "culture": 6985,
      "及其": 6986,
      "完成": 6987,
      "导致": 6988,
      "表现": 6989,
      "ream": 6990,
      "sty": 6991,
      "social": 6992,
      "establ": 6993,
      "lling": 6994,
      "understand": 6995,
      "ben": 6996,
      "tre": 6997,
      "teach": 6998,
      "strate": 6999,
      "early": 7000,
      "grad": 7001,
      "ade": 7002,
      "seem": 7003,
      "Japan": 7004,
      "cul": 7005,
      "增长": 7006,
      "gether": 7007,
      "ML": 7008,
      "Wor": 7009,
      "ps": 7010,
      "yl": 7011,
      "完全": 7012,
      "stit": 7013,
      "days": 7014,
      "fully": 7015,
      "Ro": 7016,
      "wal": 7017,
      "reason": 7018,
      "beaut": 7019,
      "safe": 7020,
      "Hu": 7021,
      "ping": 7022,
      "ress": 7023,
      "comes": 7024,
      "Is": 7025,
      "ove": 7026,
      "它的": 7027,
      "thin": 7028,
      "ives": 7029,
      "Ac": 7030,
      "bers": 7031,
      "site": 7032,
      "ying": 7033,
      "forward": 7034,
      "ately": 7035,
      "among": 7036,
      "given": 7037,
      "course": 7038,
      "performance": 7039,
      "oo": 7040,
      "决定": 7041,
      "特点": 7042,
      "together": 7043,
      "ification": 7044,
      "achie": 7045,
      "known": 7046,
      "respon": 7047,
      "history": 7048,
      "education": 7049,
      "princi": 7050,
      "future": 7051,
      "rid": 7052,
      "虽然": 7053,
      "making": 7054,
      "strong": 7055,
      "phys": 7056,
      "provide": 7057,
      "measure": 7058,
      "micro": 7059,
      "操作": 7060,
      "stor": 7061,
      "construction": 7062,
      "short": 7063,
      "polit": 7064,
      "vari": 7065,
      "明显": 7066,
      "inal": 7067,
      "means": 7068,
      "expect": 7069,
      "countries": 7070,
      "60": 7071,
      "Euro": 7072,
      "win": 7073,
      "合作": 7074,
      "汽车": 7075,
      "组成": 7076,
      "蛋白": 7077,
      "within": 7078,
      "works": 7079,
      "network": 7080,
      "特征": 7081,
      "的问题": 7082,
      "直接": 7083,
      "进入": 7084,
      "领域": 7085,
      "higher": 7086,
      "However": 7087,
      "Pe": 7088,
      "uter": 7089,
      "today": 7090,
      "iting": 7091,
      "ded": 7092,
      "har": 7093,
      "tar": 7094,
      "准备": 7095,
      "ified": 7096,
      "object": 7097,
      "Ad": 7098,
      "ather": 7099,
      "gor": 7100,
      "ior": 7101,
      "job": 7102,
      "报告": 7103,
      "检测": 7104,
      "状态": 7105,
      "ints": 7106,
      "according": 7107,
      "extra": 7108,
      "thought": 7109,
      "sens": 7110,
      "step": 7111,
      "auto": 7112,
      "effects": 7113,
      "gas": 7114,
      "langu": 7115,
      "ren": 7116,
      "distribut": 7117,
      "政治": 7118,
      "是一种": 7119,
      "ention": 7120,
      "exist": 7121,
      "ending": 7122,
      "single": 7123,
      "half": 7124,
      "的最": 7125,
      "的话": 7126,
      "super": 7127,
      "poly": 7128,
      "ought": 7129,
      "engine": 7130,
      "methods": 7131,
      "不同的": 7132,
      "several": 7133,
      "AP": 7134,
      "减少": 7135,
      "教学": 7136,
      "clusion": 7137,
      "hol": 7138,
      "代表": 7139,
      "简单": 7140,
      "along": 7141,
      "polic": 7142,
      "24": 7143,
      "ball": 7144,
      "一步": 7145,
      "参数": 7146,
      "比赛": 7147,
      "自由": 7148,
      "ctor": 7149,
      "tage": 7150,
      "table": 7151,
      "保持": 7152,
      "日本": 7153,
      "考虑": 7154,
      "软件": 7155,
      "rece": 7156,
      "cted": 7157,
      "lied": 7158,
      "boo": 7159,
      "minis": 7160,
      "relationship": 7161,
      "aff": 7162,
      "工艺": 7163,
      "return": 7164,
      "dem": 7165,
      "cop": 7166,
      "Do": 7167,
      "iang": 7168,
      "ming": 7169,
      "一次": 7170,
      "动物": 7171,
      "pris": 7172,
      "something": 7173,
      "结果表明": 7174,
      "author": 7175,
      "ze": 7176,
      "基因": 7177,
      "如此": 7178,
      "尽管": 7179,
      "执行": 7180,
      "政策": 7181,
      "无法": 7182,
      "，”": 7183,
      "force": 7184,
      "range": 7185,
      "过程中": 7186,
      "economy": 7187,
      "American": 7188,
      "ao": 7189,
      "ij": 7190,
      "不要": 7191,
      "就会": 7192,
      "神经": 7193,
      "ision": 7194,
      "already": 7195,
      "road": 7196,
      "2010": 7197,
      "Mar": 7198,
      "fall": 7199,
      "later": 7200,
      "tical": 7201,
      "客户": 7202,
      "确定": 7203,
      "语言": 7204,
      "ources": 7205,
      "color": 7206,
      "University": 7207,
      "introduced": 7208,
      "建议": 7209,
      "思想": 7210,
      "机构": 7211,
      "过去": 7212,
      "运行": 7213,
      "itor": 7214,
      "ctions": 7215,
      "diffic": 7216,
      "significant": 7217,
      "young": 7218,
      "express": 7219,
      "plac": 7220,
      "close": 7221,
      "ging": 7222,
      "tro": 7223,
      "多数": 7224,
      "家庭": 7225,
      "联合": 7226,
      "atures": 7227,
      "ried": 7228,
      "United": 7229,
      "Europe": 7230,
      "Jo": 7231,
      "Nor": 7232,
      "cli": 7233,
      "学校": 7234,
      "面的": 7235,
      "increase": 7236,
      "member": 7237,
      "先生": 7238,
      "orig": 7239,
      "ently": 7240,
      "conne": 7241,
      "ights": 7242,
      "diag": 7243,
      "compos": 7244,
      "surface": 7245,
      "supp": 7246,
      "Comp": 7247,
      "official": 7248,
      "past": 7249,
      "wn": 7250,
      "不断": 7251,
      "band": 7252,
      "flo": 7253,
      "vious": 7254,
      "形式": 7255,
      "通常": 7256,
      "ered": 7257,
      "compan": 7258,
      "indic": 7259,
      "gress": 7260,
      "whole": 7261,
      "certain": 7262,
      "cases": 7263,
      "pul": 7264,
      "一起": 7265,
      "专业": 7266,
      "ines": 7267,
      "ended": 7268,
      "Then": 7269,
      "developed": 7270,
      "CT": 7271,
      "dou": 7272,
      "lic": 7273,
      "价格": 7274,
      "关键": 7275,
      "的新": 7276,
      "live": 7277,
      "ived": 7278,
      "curity": 7279,
      "suggest": 7280,
      "CA": 7281,
      "fu": 7282,
      "世纪": 7283,
      "他说": 7284,
      "分布": 7285,
      "广泛": 7286,
      "现代": 7287,
      "生命": 7288,
      "继续": 7289,
      "觉得": 7290,
      "pressure": 7291,
      "photo": 7292,
      "下的": 7293,
      "临床": 7294,
      "制造": 7295,
      "ening": 7296,
      "reco": 7297,
      "These": 7298,
      "eval": 7299,
      "fail": 7300,
      "risk": 7301,
      "natural": 7302,
      "Com": 7303,
      "建筑": 7304,
      "每个": 7305,
      "精神": 7306,
      "自动": 7307,
      "ches": 7308,
      "ids": 7309,
      "profess": 7310,
      "environment": 7311,
      ",\\\"": 7312,
      "ease": 7313,
      "类型": 7314,
      "vision": 7315,
      "general": 7316,
      "ah": 7317,
      "hor": 7318,
      "image": 7319,
      "stop": 7320,
      "人类": 7321,
      "位于": 7322,
      "并不": 7323,
      "算法": 7324,
      "述了": 7325,
      "ank": 7326,
      "ones": 7327,
      "obtain": 7328,
      "hour": 7329,
      "million": 7330,
      "化的": 7331,
      "总统": 7332,
      "欧洲": 7333,
      "达到": 7334,
      "造成": 7335,
      "音乐": 7336,
      "inj": 7337,
      "outs": 7338,
      "told": 7339,
      "rap": 7340,
      "lower": 7341,
      "Web": 7342,
      "shows": 7343,
      "blood": 7344,
      "integr": 7345,
      "sat": 7346,
      "用的": 7347,
      "超过": 7348,
      "makes": 7349,
      "traditional": 7350,
      "language": 7351,
      "By": 7352,
      "ama": 7353,
      "lu": 7354,
      "区域": 7355,
      "后的": 7356,
      "电影": 7357,
      "针对": 7358,
      "风险": 7359,
      "points": 7360,
      "particular": 7361,
      "NA": 7362,
      "kill": 7363,
      "ler": 7364,
      "一下": 7365,
      "几个": 7366,
      "感到": 7367,
      "effective": 7368,
      "colle": 7369,
      "discussed": 7370,
      "之间的": 7371,
      "wa": 7372,
      "对象": 7373,
      "建设": 7374,
      "那个": 7375,
      "defin": 7376,
      "tell": 7377,
      "machine": 7378,
      "Now": 7379,
      "sent": 7380,
      "有限": 7381,
      "网站": 7382,
      "色的": 7383,
      "降低": 7384,
      "anim": 7385,
      "resist": 7386,
      "研究了": 7387,
      "approach": 7388,
      "crit": 7389,
      "业务": 7390,
      "例如": 7391,
      "有一个": 7392,
      "bot": 7393,
      "dress": 7394,
      "这样的": 7395,
      "PC": 7396,
      "ago": 7397,
      "imag": 7398,
      "ked": 7399,
      "wat": 7400,
      "出来": 7401,
      "容易": 7402,
      "程度": 7403,
      "tool": 7404,
      "def": 7405,
      "necess": 7406,
      "child": 7407,
      "SA": 7408,
      "dle": 7409,
      "frequ": 7410,
      "氧化": 7411,
      "once": 7412,
      "coming": 7413,
      "basic": 7414,
      "nal": 7415,
      "严重": 7416,
      "复杂": 7417,
      "etc": 7418,
      "Can": 7419,
      "pan": 7420,
      "动力": 7421,
      "参加": 7422,
      "将会": 7423,
      "determin": 7424,
      "idence": 7425,
      "tru": 7426,
      "changes": 7427,
      "phas": 7428,
      "稳定": 7429,
      "proposed": 7430,
      "computer": 7431,
      "ension": 7432,
      "drug": 7433,
      "experience": 7434,
      "various": 7435,
      "temperature": 7436,
      "possible": 7437,
      "Or": 7438,
      "法律": 7439,
      "系列": 7440,
      "role": 7441,
      "peci": 7442,
      "international": 7443,
      "198": 7444,
      "showed": 7445,
      "complete": 7446,
      "others": 7447,
      "Man": 7448,
      "fish": 7449,
      "five": 7450,
      "late": 7451,
      "simple": 7452,
      "性和": 7453,
      "ery": 7454,
      "prob": 7455,
      "clin": 7456,
      "processing": 7457,
      "ference": 7458,
      "modern": 7459,
      "eyes": 7460,
      "base": 7461,
      "sun": 7462,
      "不仅": 7463,
      "人民": 7464,
      "以来": 7465,
      "出的": 7466,
      "机会": 7467,
      "里的": 7468,
      "took": 7469,
      "user": 7470,
      "optim": 7471,
      "word": 7472,
      "compet": 7473,
      "employ": 7474,
      "Method": 7475,
      "器的": 7476,
      "连接": 7477,
      "concer": 7478,
      "white": 7479,
      "mother": 7480,
      "astic": 7481,
      "systems": 7482,
      "equip": 7483,
      "scient": 7484,
      "until": 7485,
      "God": 7486,
      "gir": 7487,
      "sor": 7488,
      "体系": 7489,
      "感觉": 7490,
      "资料": 7491,
      "重新": 7492,
      "需求": 7493,
      "dete": 7494,
      "lies": 7495,
      "specific": 7496,
      "hib": 7497,
      "lat": 7498,
      "wr": 7499,
      "一位": 7500,
      "为什么": 7501,
      "检查": 7502,
      "电视": 7503,
      "star": 7504,
      "accoun": 7505,
      "sho": 7506,
      "quick": 7507,
      "tax": 7508,
      "board": 7509,
      "prevent": 7510,
      "ront": 7511,
      "English": 7512,
      "issue": 7513,
      "spr": 7514,
      "wall": 7515,
      "其它": 7516,
      "化学": 7517,
      "有些": 7518,
      "注意": 7519,
      "速度": 7520,
      "code": 7521,
      "tee": 7522,
      "ensive": 7523,
      "2008": 7524,
      "提供了": 7525,
      "Car": 7526,
      "How": 7527,
      "scal": 7528,
      "tor": 7529,
      "的主要": 7530,
      "glob": 7531,
      "shap": 7532,
      "formed": 7533,
      "speed": 7534,
      "invol": 7535,
      "cells": 7536,
      "characteristics": 7537,
      "teaching": 7538,
      "CD": 7539,
      "bat": 7540,
      "cast": 7541,
      "cks": 7542,
      "一般": 7543,
      "位置": 7544,
      "努力": 7545,
      "工具": 7546,
      "整个": 7547,
      "文章": 7548,
      "期的": 7549,
      "药物": 7550,
      "ances": 7551,
      "select": 7552,
      "areas": 7553,
      "abor": 7554,
      "above": 7555,
      "words": 7556,
      "wood": 7557,
      "clean": 7558,
      "ibility": 7559,
      "steel": 7560,
      "ledge": 7561,
      "MS": 7562,
      "source": 7563,
      "的小": 7564,
      "知识": 7565,
      "者的": 7566,
      "total": 7567,
      "nel": 7568,
      "plant": 7569,
      "designed": 7570,
      "capital": 7571,
      "whether": 7572,
      "demand": 7573,
      "scre": 7574,
      "分子": 7575,
      "同样": 7576,
      "工业": 7577,
      "成本": 7578,
      "least": 7579,
      "rich": 7580,
      "black": 7581,
      "avail": 7582,
      "looking": 7583,
      "style": 7584,
      "%。\"}": 7585,
      "iency": 7586,
      "pal": 7587,
      "vation": 7588,
      "fort": 7589,
      "access": 7590,
      "\\\".\",": 7591,
      "companies": 7592,
      "pie": 7593,
      "一定": 7594,
      "会议": 7595,
      "你可以": 7596,
      "就像": 7597,
      "数字": 7598,
      "星期": 7599,
      "特性": 7600,
      "解释": 7601,
      "ilar": 7602,
      "promo": 7603,
      "foreign": 7604,
      "question": 7605,
      "Gr": 7606,
      "Zh": 7607,
      "fru": 7608,
      "lt": 7609,
      "pain": 7610,
      "不可": 7611,
      "儿童": 7612,
      "方向": 7613,
      "更加": 7614,
      "的地方": 7615,
      "第三": 7616,
      "范围": 7617,
      "ened": 7618,
      "heat": 7619,
      "custom": 7620,
      "focus": 7621,
      "further": 7622,
      "bio": 7623,
      "dig": 7624,
      "fire": 7625,
      "ker": 7626,
      "sound": 7627,
      "也许": 7628,
      "取得": 7629,
      "报道": 7630,
      "消息": 7631,
      "ications": 7632,
      "taken": 7633,
      "price": 7634,
      "spir": 7635,
      "分析了": 7636,
      "Po": 7637,
      "moun": 7638,
      "措施": 7639,
      "有的": 7640,
      "recor": 7641,
      "why": 7642,
      "hai": 7643,
      "camp": 7644,
      "所有的": 7645,
      "male": 7646,
      "divid": 7647,
      "pecially": 7648,
      "IS": 7649,
      "eve": 7650,
      "mess": 7651,
      "仍然": 7652,
      "利亚": 7653,
      "压力": 7654,
      "金属": 7655,
      "deep": 7656,
      "aps": 7657,
      "acy": 7658,
      "manag": 7659,
      "disease": 7660,
      "create": 7661,
      "series": 7662,
      "trade": 7663,
      "parame": 7664,
      "implement": 7665,
      "dynam": 7666,
      "learn": 7667,
      "ijing": 7668,
      "His": 7669,
      "round": 7670,
      "保证": 7671,
      "创造": 7672,
      "女性": 7673,
      "找到": 7674,
      "测量": 7675,
      "的发展": 7676,
      "的重要": 7677,
      "联系": 7678,
      "阶段": 7679,
      "security": 7680,
      "acc": 7681,
      "web": 7682,
      "exam": 7683,
      "ills": 7684,
      "resident": 7685,
      "izing": 7686,
      "finan": 7687,
      "Conclusion": 7688,
      "electron": 7689,
      "presented": 7690,
      "analyzed": 7691,
      "conditions": 7692,
      "diagno": 7693,
      "70": 7694,
      "path": 7695,
      "疾病": 7696,
      "进一步": 7697,
      "ino": 7698,
      "especially": 7699,
      "itary": 7700,
      "death": 7701,
      "seen": 7702,
      "compon": 7703,
      "stead": 7704,
      "Col": 7705,
      "Ser": 7706,
      "bra": 7707,
      "cry": 7708,
      "mi": 7709,
      "几乎": 7710,
      "大多数": 7711,
      "是个": 7712,
      "经验": 7713,
      "init": 7714,
      "third": 7715,
      "town": 7716,
      "condu": 7717,
      "可能会": 7718,
      "Beijing": 7719,
      "software": 7720,
      "chemical": 7721,
      "benef": 7722,
      "Ap": 7723,
      "Fin": 7724,
      "Pr": 7725,
      "ror": 7726,
      "size": 7727,
      "交易": 7728,
      "受到": 7729,
      "含量": 7730,
      "表达": 7731,
      "ither": 7732,
      "ames": 7733,
      "due": 7734,
      "basis": 7735,
      "pattern": 7736,
      "ports": 7737,
      "complex": 7738,
      "continu": 7739,
      "ES": 7740,
      "mass": 7741,
      "机制": 7742,
      "行业": 7743,
      "那里": 7744,
      "remo": 7745,
      "reach": 7746,
      "suit": 7747,
      "earth": 7748,
      "marke": 7749,
      "services": 7750,
      "influence": 7751,
      "According": 7752,
      "ID": 7753,
      "aking": 7754,
      "从而": 7755,
      "信号": 7756,
      "我想": 7757,
      "最近": 7758,
      "机的": 7759,
      "模拟": 7760,
      "电话": 7761,
      "inde": 7762,
      "active": 7763,
      "augh": 7764,
      "standard": 7765,
      "bank": 7766,
      "break": 7767,
      "ju": 7768,
      "tend": 7769,
      "ufact": 7770,
      "共同": 7771,
      "定义": 7772,
      "小时": 7773,
      "心理": 7774,
      "手术": 7775,
      "比如": 7776,
      "cold": 7777,
      "adop": 7778,
      "ung": 7779,
      "feed": 7780,
      "mob": 7781,
      "bring": 7782,
      "mainly": 7783,
      "States": 7784,
      "factors": 7785,
      "easy": 7786,
      "popular": 7787,
      "reported": 7788,
      "23": 7789,
      "cross": 7790,
      "创建": 7791,
      "参与": 7792,
      "时代": 7793,
      "销售": 7794,
      "heav": 7795,
      "sex": 7796,
      "acid": 7797,
      "amoun": 7798,
      "idea": 7799,
      "mission": 7800,
      "mechanism": 7801,
      "gorith": 7802,
      "Our": 7803,
      "bi": 7804,
      "令人": 7805,
      "北京": 7806,
      "指出": 7807,
      "表面": 7808,
      "评价": 7809,
      "诊断": 7810,
      "说明": 7811,
      "ester": 7812,
      "stra": 7813,
      "ilo": 7814,
      "sea": 7815,
      "separ": 7816,
      "istic": 7817,
      "情况下": 7818,
      "check": 7819,
      "appear": 7820,
      "global": 7821,
      "iver": 7822,
      "他在": 7823,
      "任务": 7824,
      "引起": 7825,
      "的工作": 7826,
      "reli": 7827,
      "asing": 7828,
      "une": 7829,
      "prep": 7830,
      "woman": 7831,
      "region": 7832,
      "build": 7833,
      "ixed": 7834,
      "green": 7835,
      "materials": 7836,
      "90": 7837,
      "Te": 7838,
      "fill": 7839,
      "og": 7840,
      "six": 7841,
      "学家": 7842,
      "怎么": 7843,
      "未来": 7844,
      "身体": 7845,
      "enough": 7846,
      "remain": 7847,
      "shop": 7848,
      "features": 7849,
      "samp": 7850,
      "applied": 7851,
      "\\\",": 7852,
      "加工": 7853,
      "才能": 7854,
      "algorith": 7855,
      "affect": 7856,
      "hydro": 7857,
      "music": 7858,
      "done": 7859,
      "三个": 7860,
      "另一": 7861,
      "年轻": 7862,
      "快速": 7863,
      "收入": 7864,
      "最终": 7865,
      "植物": 7866,
      "相信": 7867,
      "竞争": 7868,
      "领导": 7869,
      "高的": 7870,
      "begin": 7871,
      "imm": 7872,
      "brid": 7873,
      "World": 7874,
      "policy": 7875,
      "Brit": 7876,
      "game": 7877,
      "制度": 7878,
      "卫生": 7879,
      "岁的": 7880,
      "证明": 7881,
      "除了": 7882,
      "首先": 7883,
      "eral": 7884,
      "arr": 7885,
      "ured": 7886,
      "ival": 7887,
      "subject": 7888,
      "following": 7889,
      "practice": 7890,
      "MA": 7891,
      "Mon": 7892,
      "bad": 7893,
      "gold": 7894,
      "oid": 7895,
      "下来": 7896,
      "意识": 7897,
      "概念": 7898,
      "避免": 7899,
      "detail": 7900,
      "uss": 7901,
      "wel": 7902,
      "manufact": 7903,
      "news": 7904,
      "aves": 7905,
      "knowledge": 7906,
      "father": 7907,
      "months": 7908,
      "thesis": 7909,
      "似乎": 7910,
      "国内": 7911,
      "在这": 7912,
      "带来": 7913,
      "消费": 7914,
      "移动": 7915,
      "综合": 7916,
      "deal": 7917,
      "having": 7918,
      "strength": 7919,
      "door": 7920,
      "ideo": 7921,
      "hope": 7922,
      "foot": 7923,
      "industri": 7924,
      "electric": 7925,
      "morning": 7926,
      "lines": 7927,
      "21": 7928,
      "500": 7929,
      "Sy": 7930,
      "front": 7931,
      "分钟": 7932,
      "变得": 7933,
      "温度": 7934,
      "装置": 7935,
      "采取": 7936,
      "ond": 7937,
      "office": 7938,
      "buy": 7939,
      "difficult": 7940,
      "necessary": 7941,
      "phase": 7942,
      "May": 7943,
      "vit": 7944,
      "另外": 7945,
      "长期": 7946,
      "inc": 7947,
      "itch": 7948,
      "ilities": 7949,
      "sequ": 7950,
      "coll": 7951,
      "taking": 7952,
      "medi": 7953,
      "media": 7954,
      "27": 7955,
      "DB": 7956,
      "代码": 7957,
      "包含": 7958,
      "持续": 7959,
      "集团": 7960,
      "living": 7961,
      "acks": 7962,
      "tric": 7963,
      "tact": 7964,
      "box": 7965,
      "parts": 7966,
      "matic": 7967,
      "achieve": 7968,
      "available": 7969,
      "AR": 7970,
      "Cl": 7971,
      "PS": 7972,
      "gain": 7973,
      "spo": 7974,
      "tu": 7975,
      "小的": 7976,
      "来越": 7977,
      "死亡": 7978,
      "行动": 7979,
      "行的": 7980,
      "食物": 7981,
      "across": 7982,
      "iful": 7983,
      "friends": 7984,
      "clinical": 7985,
      "pack": 7986,
      "事件": 7987,
      "新闻": 7988,
      "显著": 7989,
      "类似": 7990,
      "纽约": 7991,
      "eness": 7992,
      "review": 7993,
      "geo": 7994,
      "saw": 7995,
      "version": 7996,
      "应用程序": 7997,
      "factor": 7998,
      "include": 7999,
      "Ph": 8000,
      "dest": 8001,
      "pic": 8002,
      "squ": 8003,
      "simp": 8004,
      "yet": 8005,
      "关注": 8006,
      "在这个": 8007,
      "混合": 8008,
      "现象": 8009,
      "经过": 8010,
      "越来越": 8011,
      "lex": 8012,
      "lying": 8013,
      "lled": 8014,
      "ends": 8015,
      "dog": 8016,
      "carbon": 8017,
      "solution": 8018,
      "didn": 8019,
      "explain": 8020,
      "political": 8021,
      "nature": 8022,
      "vil": 8023,
      "我在": 8024,
      "游戏": 8025,
      "特殊": 8026,
      "贸易": 8027,
      "运用": 8028,
      "ley": 8029,
      "utes": 8030,
      "tel": 8031,
      "liqu": 8032,
      "stress": 8033,
      "counter": 8034,
      "skin": 8035,
      "26": 8036,
      "Ger": 8037,
      "实施": 8038,
      "测定": 8039,
      "individ": 8040,
      "almost": 8041,
      "associ": 8042,
      "deli": 8043,
      "concept": 8044,
      "ables": 8045,
      "estim": 8046,
      "exe": 8047,
      "display": 8048,
      "center": 8049,
      "studies": 8050,
      "technique": 8051,
      "Based": 8052,
      "ET": 8053,
      "Part": 8054,
      "pen": 8055,
      "sou": 8056,
      "事实": 8057,
      "使得": 8058,
      "办公": 8059,
      "平均": 8060,
      "经常": 8061,
      "记录": 8062,
      "toward": 8063,
      "season": 8064,
      "gets": 8065,
      "dia": 8066,
      "likely": 8067,
      "2009": 8068,
      "levels": 8069,
      "situation": 8070,
      "safety": 8071,
      "Methods": 8072,
      "financial": 8073,
      "Au": 8074,
      "PL": 8075,
      "eat": 8076,
      "zy": 8077,
      "力的": 8078,
      "图像": 8079,
      "多的": 8080,
      "差异": 8081,
      "当然": 8082,
      "正确": 8083,
      "estern": 8084,
      "beha": 8085,
      "ays": 8086,
      "soon": 8087,
      "dire": 8088,
      "ired": 8089,
      "visit": 8090,
      "America": 8091,
      "similar": 8092,
      "activity": 8093,
      "ER": 8094,
      "Min": 8095,
      "Sun": 8096,
      "bul": 8097,
      "bir": 8098,
      "na": 8099,
      "wing": 8100,
      "今年": 8101,
      "印度": 8102,
      "即使": 8103,
      "年来": 8104,
      "部门": 8105,
      "rep": 8106,
      "ands": 8107,
      "section": 8108,
      "loss": 8109,
      "weight": 8110,
      "docu": 8111,
      "phone": 8112,
      "efficiency": 8113,
      "establish": 8114,
      "psy": 8115,
      "ring": 8116,
      "sle": 8117,
      "战争": 8118,
      "故事": 8119,
      "物质": 8120,
      "结束": 8121,
      "ules": 8122,
      "cannot": 8123,
      "公司的": 8124,
      "calcul": 8125,
      "frame": 8126,
      "behavi": 8127,
      "CS": 8128,
      "Don": 8129,
      "fat": 8130,
      "fast": 8131,
      "ns": 8132,
      "nit": 8133,
      "page": 8134,
      "smo": 8135,
      "…\"}": 8136,
      "专家": 8137,
      "委员": 8138,
      "学院": 8139,
      "时期": 8140,
      "stain": 8141,
      "metal": 8142,
      "deb": 8143,
      "poor": 8144,
      "tration": 8145,
      "cient": 8146,
      "film": 8147,
      "respons": 8148,
      "asked": 8149,
      "investigate": 8150,
      "CO": 8151,
      "link": 8152,
      "tour": 8153,
      "原理": 8154,
      "基金": 8155,
      "官员": 8156,
      "实践": 8157,
      "法国": 8158,
      "相同": 8159,
      "ised": 8160,
      "ster": 8161,
      "share": 8162,
      "quant": 8163,
      "ivity": 8164,
      "2007": 8165,
      "Shang": 8166,
      "potential": 8167,
      "types": 8168,
      "aver": 8169,
      "lor": 8170,
      "nu": 8171,
      "sen": 8172,
      "元素": 8173,
      "加入": 8174,
      "她们": 8175,
      "子的": 8176,
      "描述": 8177,
      "期间": 8178,
      "真正": 8179,
      "课程": 8180,
      "这么": 8181,
      "glass": 8182,
      "ators": 8183,
      "stage": 8184,
      "tele": 8185,
      "lif": 8186,
      "perfect": 8187,
      "resources": 8188,
      "ify": 8189,
      "training": 8190,
      "2005": 8191,
      "transfer": 8192,
      "matter": 8193,
      "increased": 8194,
      "joy": 8195,
      "outside": 8196,
      "South": 8197,
      "dark": 8198,
      "file": 8199,
      "ife": 8200,
      "mary": 8201,
      "slow": 8202,
      "内部": 8203,
      "去年": 8204,
      "意味": 8205,
      "成了": 8206,
      "改进": 8207,
      "的高": 8208,
      "的时间": 8209,
      "负责": 8210,
      "usually": 8211,
      "observ": 8212,
      "party": 8213,
      "provides": 8214,
      "kinds": 8215,
      "running": 8216,
      "beautiful": 8217,
      "distribution": 8218,
      "BA": 8219,
      "City": 8220,
      "IT": 8221,
      "cru": 8222,
      "hind": 8223,
      "sus": 8224,
      "也不": 8225,
      "十分": 8226,
      "在一个": 8227,
      "核心": 8228,
      "生长": 8229,
      "电脑": 8230,
      "相互": 8231,
      "ingly": 8232,
      "began": 8233,
      "unit": 8234,
      "accur": 8235,
      "pose": 8236,
      "quar": 8237,
      "cancer": 8238,
      "actually": 8239,
      "mark": 8240,
      "selves": 8241,
      "provided": 8242,
      "Fe": 8243,
      "Lo": 8244,
      "bound": 8245,
      "billion": 8246,
      "ration": 8247,
      "在此": 8248,
      "大家": 8249,
      "媒体": 8250,
      "当时": 8251,
      "相当": 8252,
      "经历": 8253,
      "规模": 8254,
      "适合": 8255,
      "coal": 8256,
      "exer": 8257,
      "true": 8258,
      "takes": 8259,
      "中国的": 8260,
      "investment": 8261,
      "addition": 8262,
      "normal": 8263,
      "covered": 8264,
      "individual": 8265,
      "29": 8266,
      "IN": 8267,
      "作品": 8268,
      "动态": 8269,
      "商业": 8270,
      "总是": 8271,
      "购买": 8272,
      "资金": 8273,
      "ouse": 8274,
      "search": 8275,
      "lost": 8276,
      "progress": 8277,
      "soil": 8278,
      "prise": 8279,
      "host": 8280,
      "基础上": 8281,
      "principle": 8282,
      "probably": 8283,
      "Des": 8284,
      "Per": 8285,
      "两种": 8286,
      "改善": 8287,
      "有人": 8288,
      "空气": 8289,
      "错误": 8290,
      "预测": 8291,
      "ret": 8292,
      "adjust": 8293,
      "mail": 8294,
      "thern": 8295,
      "doing": 8296,
      "collect": 8297,
      "计算机": 8298,
      "started": 8299,
      "paint": 8300,
      "jud": 8301,
      "tree": 8302,
      "个月": 8303,
      "合理": 8304,
      "效率": 8305,
      "正常": 8306,
      "相对": 8307,
      "认识": 8308,
      "访问": 8309,
      "represent": 8310,
      "ili": 8311,
      "decl": 8312,
      "consu": 8313,
      "dim": 8314,
      "avor": 8315,
      "developing": 8316,
      "talk": 8317,
      "capac": 8318,
      "needs": 8319,
      "element": 8320,
      "properties": 8321,
      "circ": 8322,
      "believe": 8323,
      "Bo": 8324,
      "Coun": 8325,
      "Fir": 8326,
      "gave": 8327,
      "mb": 8328,
      "sense": 8329,
      "wave": 8330,
      "分别": 8331,
      "制作": 8332,
      "型的": 8333,
      "活性": 8334,
      "至少": 8335,
      "英语": 8336,
      "这项": 8337,
      "inf": 8338,
      "reed": 8339,
      "itation": 8340,
      "novel": 8341,
      "property": 8342,
      "military": 8343,
      "middle": 8344,
      "North": 8345,
      "double": 8346,
      "recogn": 8347,
      "equipment": 8348,
      "algorithm": 8349,
      "28": 8350,
      "IC": 8351,
      "IM": 8352,
      "dream": 8353,
      "xim": 8354,
      "允许": 8355,
      "公共": 8356,
      "另一个": 8357,
      "困难": 8358,
      "尤其": 8359,
      "巴马": 8360,
      "您的": 8361,
      "病毒": 8362,
      "重点": 8363,
      "ising": 8364,
      "ork": 8365,
      "story": 8366,
      "plate": 8367,
      "hair": 8368,
      "claim": 8369,
      "serve": 8370,
      "request": 8371,
      "lands": 8372,
      "Results": 8373,
      "Joh": 8374,
      "evalu": 8375,
      "President": 8376,
      "cere": 8377,
      "xi": 8378,
      "丰富": 8379,
      "感染": 8380,
      "改革": 8381,
      "满足": 8382,
      "葡萄": 8383,
      "enh": 8384,
      "held": 8385,
      "lier": 8386,
      "Inter": 8387,
      "phen": 8388,
      "cked": 8389,
      "built": 8390,
      "society": 8391,
      "device": 8392,
      "obtained": 8393,
      "scale": 8394,
      "TV": 8395,
      "cise": 8396,
      "gree": 8397,
      "ners": 8398,
      "swe": 8399,
      "tes": 8400,
      "优势": 8401,
      "优化": 8402,
      "太阳": 8403,
      "必要": 8404,
      "指标": 8405,
      "是由": 8406,
      "欢迎": 8407,
      "设置": 8408,
      "那样": 8409,
      "vey": 8410,
      "olution": 8411,
      "accept": 8412,
      "event": 8413,
      "central": 8414,
      "relative": 8415,
      "added": 8416,
      "physical": 8417,
      "mobile": 8418,
      "AS": 8419,
      "Go": 8420,
      "Many": 8421,
      "bri": 8422,
      "brain": 8423,
      "全国": 8424,
      "大量": 8425,
      "德国": 8426,
      "教授": 8427,
      "数量": 8428,
      "的主": 8429,
      "统计": 8430,
      "金融": 8431,
      "限制": 8432,
      "ney": 8433,
      "shown": 8434,
      "mode": 8435,
      "reser": 8436,
      "upon": 8437,
      "caused": 8438,
      "2000": 8439,
      "medical": 8440,
      "priv": 8441,
      "personal": 8442,
      "broad": 8443,
      "Ma": 8444,
      "Russ": 8445,
      "cro": 8446,
      "rup": 8447,
      "zhou": 8448,
      "产业": 8449,
      "培养": 8450,
      "斯特": 8451,
      "状况": 8452,
      "纤维": 8453,
      "职业": 8454,
      "食品": 8455,
      "ange": 8456,
      "ali": 8457,
      "forms": 8458,
      "serious": 8459,
      "2006": 8460,
      "attention": 8461,
      "efficient": 8462,
      "委员会": 8463,
      "35": 8464,
      "bes": 8465,
      "cr": 8466,
      "hit": 8467,
      "mes": 8468,
      "west": 8469,
      "上海": 8470,
      "下降": 8471,
      "依据": 8472,
      "危险": 8473,
      "名的": 8474,
      "成员": 8475,
      "斯坦": 8476,
      "真的": 8477,
      "连续": 8478,
      "era": 8479,
      "atic": 8480,
      "stay": 8481,
      "verse": 8482,
      "nothing": 8483,
      "apter": 8484,
      "civil": 8485,
      "iao": 8486,
      "offer": 8487,
      "portun": 8488,
      "getting": 8489,
      "protect": 8490,
      "particip": 8491,
      "在一起": 8492,
      "ordin": 8493,
      "science": 8494,
      "expected": 8495,
      "dynamic": 8496,
      "index": 8497,
      "OR": 8498,
      "函数": 8499,
      "到的": 8500,
      "当地": 8501,
      "添加": 8502,
      "详细": 8503,
      "ories": 8504,
      "hear": 8505,
      "became": 8506,
      "igure": 8507,
      "iding": 8508,
      "ples": 8509,
      "respect": 8510,
      "pred": 8511,
      "pread": 8512,
      "preci": 8513,
      "linear": 8514,
      "科学家": 8515,
      "更多的": 8516,
      "amount": 8517,
      "First": 8518,
      "Even": 8519,
      "Lu": 8520,
      "either": 8521,
      "lack": 8522,
      "一点": 8523,
      "医生": 8524,
      "名字": 8525,
      "奥巴马": 8526,
      "无论": 8527,
      "的原因": 8528,
      "面对": 8529,
      "itect": 8530,
      "tific": 8531,
      "ously": 8532,
      "cred": 8533,
      "crete": 8534,
      "hot": 8535,
      "server": 8536,
      "members": 8537,
      "experiment": 8538,
      "的事情": 8539,
      "..": 8540,
      "Ab": 8541,
      "IV": 8542,
      "Kore": 8543,
      "Su": 8544,
      "XML": 8545,
      "York": 8546,
      "cup": 8547,
      "医院": 8548,
      "合物": 8549,
      "处于": 8550,
      "教师": 8551,
      "某些": 8552,
      "玻璃": 8553,
      "理解": 8554,
      "科技": 8555,
      "inno": 8556,
      "thy": 8557,
      "ister": 8558,
      "orient": 8559,
      "roll": 8560,
      "travel": 8561,
      "longer": 8562,
      "measures": 8563,
      "community": 8564,
      "meeting": 8565,
      "quickly": 8566,
      "customers": 8567,
      "AT": 8568,
      "一名": 8569,
      "于是": 8570,
      "促进": 8571,
      "医疗": 8572,
      "团队": 8573,
      "土地": 8574,
      "在于": 8575,
      "提取": 8576,
      "独立": 8577,
      "称为": 8578,
      "都会": 8579,
      "都有": 8580,
      "asse": 8581,
      "moment": 8582,
      "ows": 8583,
      "opportun": 8584,
      "ption": 8585,
      "everything": 8586,
      "laun": 8587,
      "target": 8588,
      "supply": 8589,
      "mountain": 8590,
      "Shanghai": 8591,
      "75": 8592,
      "Pl": 8593,
      "亿美元": 8594,
      "以前": 8595,
      "大约": 8596,
      "安装": 8597,
      "属于": 8598,
      "年前": 8599,
      "开放": 8600,
      "机器": 8601,
      "策略": 8602,
      "线性": 8603,
      "罗斯": 8604,
      "适应": 8605,
      "ats": 8606,
      "aris": 8607,
      "seed": 8608,
      "suff": 8609,
      "pow": 8610,
      "phy": 8611,
      "impact": 8612,
      "contribut": 8613,
      "2004": 8614,
      "saying": 8615,
      "president": 8616,
      "difference": 8617,
      "famous": 8618,
      "drop": 8619,
      "issues": 8620,
      "described": 8621,
      "hours": 8622,
      "意味着": 8623,
      "\"《": 8624,
      "AN": 8625,
      "Cor": 8626,
      "From": 8627,
      "clim": 8628,
      "dol": 8629,
      "fight": 8630,
      "原则": 8631,
      "年代": 8632,
      "成的": 8633,
      "照片": 8634,
      "试图": 8635,
      "ert": 8636,
      "former": 8637,
      "发展的": 8638,
      "command": 8639,
      "cape": 8640,
      "目的探讨": 8641,
      "Because": 8642,
      "generation": 8643,
      "%，": 8644,
      "CC": 8645,
      "Har": 8646,
      "National": 8647,
      "fit": 8648,
      "video": 8649,
      "只要": 8650,
      "品牌": 8651,
      "地球": 8652,
      "平衡": 8653,
      "当前": 8654,
      "想要": 8655,
      "抑制": 8656,
      "是因为": 8657,
      "普通": 8658,
      "曾经": 8659,
      "污染": 8660,
      "球员": 8661,
      "ata": 8662,
      "reas": 8663,
      "station": 8664,
      "answer": 8665,
      "century": 8666,
      "While": 8667,
      "服务器": 8668,
      "fault": 8669,
      "turned": 8670,
      "specif": 8671,
      "elements": 8672,
      "summer": 8673,
      "writing": 8674,
      "liquid": 8675,
      "John": 8676,
      "Hong": 8677,
      "IP": 8678,
      "ime": 8679,
      "je": 8680,
      "nut": 8681,
      "rig": 8682,
      "ume": 8683,
      "vill": 8684,
      "农业": 8685,
      "可靠": 8686,
      "大部分": 8687,
      "旅游": 8688,
      "有着": 8689,
      "生态": 8690,
      "用来": 8691,
      "角度": 8692,
      "训练": 8693,
      "这位": 8694,
      "chron": 8695,
      "decre": 8696,
      "construct": 8697,
      "tive": 8698,
      "asty": 8699,
      "trying": 8700,
      "charge": 8701,
      "groups": 8702,
      "species": 8703,
      "layer": 8704,
      "thinking": 8705,
      "books": 8706,
      "fine": 8707,
      "gon": 8708,
      "gar": 8709,
      "tions": 8710,
      "不到": 8711,
      "协议": 8712,
      "和其他": 8713,
      "展示": 8714,
      "距离": 8715,
      "thous": 8716,
      "chall": 8717,
      "ulated": 8718,
      "users": 8719,
      "acqu": 8720,
      "motion": 8721,
      "agree": 8722,
      "hosp": 8723,
      "however": 8724,
      "minutes": 8725,
      "requirements": 8726,
      "multiple": 8727,
      "girl": 8728,
      "bab": 8729,
      "wed": 8730,
      "兴趣": 8731,
      "出口": 8732,
      "吸引": 8733,
      "广告": 8734,
      "规则": 8735,
      "这次": 8736,
      "oud": 8737,
      "rock": 8738,
      "shar": 8739,
      "plat": 8740,
      "gene": 8741,
      "hands": 8742,
      "memory": 8743,
      "protein": 8744,
      "location": 8745,
      "graphy": 8746,
      "required": 8747,
      "reduce": 8748,
      "meaning": 8749,
      "stitute": 8750,
      "average": 8751,
      "?。\"}": 8752,
      "Her": 8753,
      "Let": 8754,
      "cas": 8755,
      "core": 8756,
      "hon": 8757,
      "pi": 8758,
      "uary": 8759,
      "以后": 8760,
      "强度": 8761,
      "怎样": 8762,
      "飞机": 8763,
      "reh": 8764,
      "reet": 8765,
      "resh": 8766,
      "compared": 8767,
      "phere": 8768,
      "可以在": 8769,
      "positive": 8770,
      "regular": 8771,
      "poll": 8772,
      "方面的": 8773,
      "electro": 8774,
      "applications": 8775,
      "includes": 8776,
      "circu": 8777,
      "widely": 8778,
      "People": 8779,
      "satis": 8780,
      "fruit": 8781,
      "parameters": 8782,
      "prepared": 8783,
      "22": 8784,
      "36": 8785,
      "Dr": 8786,
      "Lin": 8787,
      "hous": 8788,
      "tit": 8789,
      "ye": 8790,
      "交通": 8791,
      "反对": 8792,
      "发明": 8793,
      "唯一": 8794,
      "尼亚": 8795,
      "并没有": 8796,
      "母亲": 8797,
      "每天": 8798,
      "父亲": 8799,
      "物理": 8800,
      "申请": 8801,
      "病人": 8802,
      "眼睛": 8803,
      "老师": 8804,
      "自我": 8805,
      "观点": 8806,
      "趋势": 8807,
      "chain": 8808,
      "atory": 8809,
      "orts": 8810,
      "lymp": 8811,
      "uration": 8812,
      "terms": 8813,
      "concent": 8814,
      "ief": 8815,
      "aving": 8816,
      "rown": 8817,
      "commit": 8818,
      "Afric": 8819,
      "changed": 8820,
      "directly": 8821,
      "drive": 8822,
      "reflect": 8823,
      "spirit": 8824,
      "direction": 8825,
      "Pre": 8826,
      "SO": 8827,
      "ians": 8828,
      "nan": 8829,
      "加强": 8830,
      "员工": 8831,
      "恢复": 8832,
      "永远": 8833,
      "清楚": 8834,
      "经营": 8835,
      "设施": 8836,
      "reform": 8837,
      "behind": 8838,
      "feature": 8839,
      "print": 8840,
      "proved": 8841,
      "tests": 8842,
      "born": 8843,
      "European": 8844,
      "rapid": 8845,
      "BC": 8846,
      "DA": 8847,
      "labor": 8848,
      "wise": 8849,
      "人口": 8850,
      "具体": 8851,
      "博士": 8852,
      "发布": 8853,
      "平台": 8854,
      "战略": 8855,
      "规定": 8856,
      "面临": 8857,
      "验证": 8858,
      "thus": 8859,
      "ceed": 8860,
      "vert": 8861,
      "pects": 8862,
      "ham": 8863,
      "anger": 8864,
      "pret": 8865,
      "monitor": 8866,
      "police": 8867,
      "Art": 8868,
      "install": 8869,
      "stock": 8870,
      "teacher": 8871,
      "strategy": 8872,
      "31": 8873,
      "32": 8874,
      "Sp": 8875,
      "Ste": 8876,
      "south": 8877,
      "wish": 8878,
      "办法": 8879,
      "成分": 8880,
      "我不": 8881,
      "效应": 8882,
      "文学": 8883,
      "现实": 8884,
      "的设计": 8885,
      "直到": 8886,
      "相比": 8887,
      "良好的": 8888,
      "评估": 8889,
      "责任": 8890,
      "reaction": 8891,
      "ild": 8892,
      "lip": 8893,
      "quite": 8894,
      "emer": 8895,
      "someone": 8896,
      "197": 8897,
      "avoid": 8898,
      "问题的": 8899,
      "transport": 8900,
      "gives": 8901,
      "Prov": 8902,
      "established": 8903,
      "seems": 8904,
      "Japanese": 8905,
      "officials": 8906,
      "execut": 8907,
      "Ear": 8908,
      "也有": 8909,
      "事情": 8910,
      "公园": 8911,
      "增强": 8912,
      "挑战": 8913,
      "生的": 8914,
      "确保": 8915,
      "社区": 8916,
      "背景": 8917,
      "iling": 8918,
      "utions": 8919,
      "pers": 8920,
      "firm": 8921,
      "standing": 8922,
      "testing": 8923,
      "inside": 8924,
      "north": 8925,
      "protection": 8926,
      "weeks": 8927,
      "walk": 8928,
      "original": 8929,
      "bridge": 8930,
      "300": 8931,
      "HT": 8932,
      "bag": 8933,
      "fi": 8934,
      "wife": 8935,
      "儿子": 8936,
      "准确": 8937,
      "多少": 8938,
      "最大": 8939,
      "的东西": 8940,
      "积极": 8941,
      "调整": 8942,
      "阅读": 8943,
      "ina": 8944,
      "enced": 8945,
      "ale": 8946,
      "dead": 8947,
      "adminis": 8948,
      "unique": 8949,
      "contract": 8950,
      "dry": 8951,
      "carry": 8952,
      "medic": 8953,
      "himself": 8954,
      "数据库": 8955,
      "signal": 8956,
      "located": 8957,
      "technical": 8958,
      "message": 8959,
      "behavior": 8960,
      "34": 8961,
      "DS": 8962,
      "King": 8963,
      "bs": 8964,
      "gs": 8965,
      "一只": 8966,
      "举行": 8967,
      "也可以": 8968,
      "力量": 8969,
      "声音": 8970,
      "尝试": 8971,
      "接触": 8972,
      "时的": 8973,
      "皮肤": 8974,
      "营养": 8975,
      "视频": 8976,
      "资本": 8977,
      "酒店": 8978,
      "enjoy": 8979,
      "theore": 8980,
      "reme": 8981,
      "proced": 8982,
      "ift": 8983,
      "created": 8984,
      "workers": 8985,
      "parents": 8986,
      "architect": 8987,
      "carried": 8988,
      "maintain": 8989,
      "datab": 8990,
      "consist": 8991,
      "activities": 8992,
      "fuel": 8993,
      "frequency": 8994,
      "industrial": 8995,
      "05": 8996,
      "45": 8997,
      "CP": 8998,
      "Goo": 8999,
      "Since": 9000,
      "cular": 9001,
      "ially": 9002,
      "搜索": 9003,
      "民族": 9004,
      "父母": 9005,
      "男人": 9006,
      "看见": 9007,
      "石油": 9008,
      "第一个": 9009,
      "online": 9010,
      "icles": 9011,
      "tages": 9012,
      "commer": 9013,
      "ensity": 9014,
      "brought": 9015,
      "produce": 9016,
      "重要的": 9017,
      "limited": 9018,
      "happy": 9019,
      "explore": 9020,
      "continue": 9021,
      "termine": 9022,
      "undred": 9023,
      "capacity": 9024,
      "BM": 9025,
      "Qu": 9026,
      "War": 9027,
      "aur": 9028,
      "yn": 9029,
      "作者": 9030,
      "供应": 9031,
      "分离": 9032,
      "失去": 9033,
      "对其": 9034,
      "小说": 9035,
      "得到了": 9036,
      "或是": 9037,
      "的前": 9038,
      "请求": 9039,
      "长的": 9040,
      "ero": 9041,
      "attra": 9042,
      "icate": 9043,
      "stic": 9044,
      "address": 9045,
      "weak": 9046,
      "exper": 9047,
      "goal": 9048,
      "correct": 9049,
      "please": 9050,
      "Obama": 9051,
      "everyone": 9052,
      "joint": 9053,
      "leader": 9054,
      "leading": 9055,
      "communication": 9056,
      "decision": 9057,
      "learning": 9058,
      "coura": 9059,
      "engineering": 9060,
      "Med": 9061,
      "River": 9062,
      "iet": 9063,
      "mas": 9064,
      "也会": 9065,
      "全部": 9066,
      "发表": 9067,
      "大利": 9068,
      "将在": 9069,
      "就可以": 9070,
      "循环": 9071,
      "最佳": 9072,
      "涉及": 9073,
      "版本": 9074,
      "离开": 9075,
      "逐渐": 9076,
      "颜色": 9077,
      "stone": 9078,
      "store": 9079,
      "entire": 9080,
      "veh": 9081,
      "degree": 9082,
      "tery": 9083,
      "exc": 9084,
      "forming": 9085,
      "brand": 9086,
      "blue": 9087,
      "airs": 9088,
      "final": 9089,
      "warm": 9090,
      "introduces": 9091,
      "cultural": 9092,
      "explo": 9093,
      "legal": 9094,
      "radi": 9095,
      "believ": 9096,
      "recently": 9097,
      "birth": 9098,
      "Dis": 9099,
      "rance": 9100,
      "sand": 9101,
      "spread": 9102,
      "内的": 9103,
      "只能": 9104,
      "当你": 9105,
      "按照": 9106,
      "放在": 9107,
      "最大的": 9108,
      "机械": 9109,
      "此外": 9110,
      "独特": 9111,
      "费用": 9112,
      "风格": 9113,
      "ancient": 9114,
      "determine": 9115,
      "cot": 9116,
      "adap": 9117,
      "const": 9118,
      "ula": 9119,
      "estic": 9120,
      "obvious": 9121,
      "corpor": 9122,
      "custo": 9123,
      "presents": 9124,
      "应用于": 9125,
      "solid": 9126,
      "reading": 9127,
      "magnet": 9128,
      "建立了": 9129,
      "Most": 9130,
      "wonder": 9131,
      "status": 9132,
      "Group": 9133,
      "33": 9134,
      "Bar": 9135,
      "More": 9136,
      "OS": 9137,
      "Rep": 9138,
      "bud": 9139,
      "gun": 9140,
      "hus": 9141,
      "ny": 9142,
      "nation": 9143,
      "做的": 9144,
      "充满": 9145,
      "单位": 9146,
      "年龄": 9147,
      "电路": 9148,
      "的地": 9149,
      "的关系": 9150,
      "组合": 9151,
      "适用于": 9152,
      "配置": 9153,
      "alle": 9154,
      "goes": 9155,
      "artment": 9156,
      "umin": 9157,
      "Therefore": 9158,
      "discuss": 9159,
      "sales": 9160,
      "prises": 9161,
      "spring": 9162,
      "components": 9163,
      "credit": 9164,
      "Every": 9165,
      "Ge": 9166,
      "ik": 9167,
      "las": 9168,
      "sn": 9169,
      "zz": 9170,
      "交流": 9171,
      "手机": 9172,
      "的不": 9173,
      "看起来": 9174,
      "约翰": 9175,
      "staff": 9176,
      "rot": 9177,
      "contact": 9178,
      "rather": 9179,
      "Intern": 9180,
      "boy": 9181,
      "speak": 9182,
      "audi": 9183,
      "tribut": 9184,
      "wanted": 9185,
      "improved": 9186,
      "looked": 9187,
      "damage": 9188,
      "practical": 9189,
      "实际上": 9190,
      "characteristic": 9191,
      "beauty": 9192,
      "expression": 9193,
      "professional": 9194,
      "resistance": 9195,
      "British": 9196,
      "Bu": 9197,
      "haps": 9198,
      "iqu": 9199,
      "mber": 9200,
      "van": 9201,
      "一项": 9202,
      "分类": 9203,
      "周期": 9204,
      "多个": 9205,
      "天然": 9206,
      "巨大的": 9207,
      "框架": 9208,
      "的一种": 9209,
      "破坏": 9210,
      "给出了": 9211,
      "难以": 9212,
      "驱动": 9213,
      "atom": 9214,
      "ored": 9215,
      "reve": 9216,
      "itself": 9217,
      "cool": 9218,
      "rab": 9219,
      "plastic": 9220,
      "immedi": 9221,
      "clus": 9222,
      "cret": 9223,
      "whose": 9224,
      "bran": 9225,
      "Any": 9226,
      "themselves": 9227,
      "State": 9228,
      "occur": 9229,
      "farm": 9230,
      "instit": 9231,
      "teachers": 9232,
      "origin": 9233,
      "heavy": 9234,
      "办公室": 9235,
      "Google": 9236,
      "BS": 9237,
      "Red": 9238,
      "push": 9239,
      "song": 9240,
      "tou": 9241,
      "tas": 9242,
      "tum": 9243,
      "zone": 9244,
      "其实": 9245,
      "分为": 9246,
      "咖啡": 9247,
      "它是": 9248,
      "拒绝": 9249,
      "攻击": 9250,
      "肿瘤": 9251,
      "规划": 9252,
      "调节": 9253,
      "香港": 9254,
      "iss": 9255,
      "refer": 9256,
      "arri": 9257,
      "iction": 9258,
      "cting": 9259,
      "bel": 9260,
      "ires": 9261,
      "fee": 9262,
      "istics": 9263,
      "研究的": 9264,
      "easily": 9265,
      "named": 9266,
      "第一次": 9267,
      "decided": 9268,
      "write": 9269,
      "piece": 9270,
      "psycho": 9271,
      "Cent": 9272,
      "EM": 9273,
      "Of": 9274,
      "Ple": 9275,
      "Pol": 9276,
      "gard": 9277,
      "length": 9278,
      "spl": 9279,
      "一切": 9280,
      "上升": 9281,
      "估计": 9282,
      "充分": 9283,
      "免疫": 9284,
      "制的": 9285,
      "合成": 9286,
      "意大利": 9287,
      "手段": 9288,
      "根本": 9289,
      "理想": 9290,
      "见的": 9291,
      "让人": 9292,
      "让我们": 9293,
      "输入": 9294,
      "alk": 9295,
      "arm": 9296,
      "stream": 9297,
      "demon": 9298,
      "forest": 9299,
      "concrete": 9300,
      "therap": 9301,
      "aged": 9302,
      "cles": 9303,
      "prices": 9304,
      "else": 9305,
      "prepar": 9306,
      "hood": 9307,
      "logic": 9308,
      "世界上": 9309,
      "needed": 9310,
      "rub": 9311,
      "primary": 9312,
      "ashing": 9313,
      "histor": 9314,
      "considered": 9315,
      "特别是": 9316,
      "response": 9317,
      "existing": 9318,
      "Finally": 9319,
      "database": 9320,
      "%,": 9321,
      "Gener": 9322,
      "HP": 9323,
      "II": 9324,
      "Ju": 9325,
      "UN": 9326,
      "cil": 9327,
      "gent": 9328,
      "rise": 9329,
      "人在": 9330,
      "免费": 9331,
      "再次": 9332,
      "创新": 9333,
      "安排": 9334,
      "完善": 9335,
      "气候": 9336,
      "经理": 9337,
      "识别": 9338,
      "集中": 9339,
      "illi": 9340,
      "seven": 9341,
      "peace": 9342,
      "waste": 9343,
      "izes": 9344,
      "sometimes": 9345,
      "anything": 9346,
      "Well": 9347,
      "Why": 9348,
      "通过对": 9349,
      "attack": 9350,
      "sites": 9351,
      "相关的": 9352,
      "eye": 9353,
      "advanced": 9354,
      "讨论了": 9355,
      "questions": 9356,
      "rench": 9357,
      "received": 9358,
      "places": 9359,
      "Kong": 9360,
      "Two": 9361,
      "card": 9362,
      "cris": 9363,
      "master": 9364,
      "上了": 9365,
      "习惯": 9366,
      "参考": 9367,
      "在中国": 9368,
      "外的": 9369,
      "女孩": 9370,
      "妇女": 9371,
      "担心": 9372,
      "拉克": 9373,
      "球队": 9374,
      "疗效": 9375,
      "的水": 9376,
      "看看": 9377,
      "贷款": 9378,
      "edge": 9379,
      "ctive": 9380,
      "heard": 9381,
      "prop": 9382,
      "mole": 9383,
      "ender": 9384,
      "yourself": 9385,
      "可能是": 9386,
      "researchers": 9387,
      "combination": 9388,
      "account": 9389,
      "digital": 9390,
      "iloso": 9391,
      "sleep": 9392,
      "International": 9393,
      "Dep": 9394,
      "RS": 9395,
      "bing": 9396,
      "cam": 9397,
      "fair": 9398,
      "jour": 9399,
      "pick": 9400,
      "ubl": 9401,
      "western": 9402,
      "。”": 9403,
      "做出": 9404,
      "寻找": 9405,
      "很好": 9406,
      "或许": 9407,
      "打开": 9408,
      "扩展": 9409,
      "承认": 9410,
      "最好的": 9411,
      "物的": 9412,
      "男性": 9413,
      "的那": 9414,
      "突然": 9415,
      "血管": 9416,
      "ites": 9417,
      "lection": 9418,
      "meter": 9419,
      "lives": 9420,
      "umn": 9421,
      "regul": 9422,
      "huge": 9423,
      "crimin": 9424,
      "cellent": 9425,
      "particularly": 9426,
      "dollar": 9427,
      "aid": 9428,
      "hundred": 9429,
      "ras": 9430,
      "scri": 9431,
      "wire": 9432,
      "。\",": 9433,
      "一致": 9434,
      "制备": 9435,
      "固定": 9436,
      "大量的": 9437,
      "居民": 9438,
      "指导": 9439,
      "损伤": 9440,
      "早期": 9441,
      "构建": 9442,
      "论文": 9443,
      "迅速": 9444,
      "飞行": 9445,
      "inner": 9446,
      "angle": 9447,
      "remember": 9448,
      "cture": 9449,
      "lose": 9450,
      "urban": 9451,
      "neg": 9452,
      "output": 9453,
      "ller": 9454,
      "cies": 9455,
      "ague": 9456,
      "internal": 9457,
      "medium": 9458,
      "background": 9459,
      "largest": 9460,
      "Although": 9461,
      "有效的": 9462,
      "purch": 9463,
      "announ": 9464,
      "nearly": 9465,
      "placed": 9466,
      "shape": 9467,
      "screen": 9468,
      "husband": 9469,
      "DP": 9470,
      "Mc": 9471,
      "bone": 9472,
      "fab": 9473,
      "vice": 9474,
      "一家": 9475,
      "亚洲": 9476,
      "他是": 9477,
      "俄罗斯": 9478,
      "助于": 9479,
      "和华": 9480,
      "地震": 9481,
      "多种": 9482,
      "失败": 9483,
      "式的": 9484,
      "成熟": 9485,
      "杂志": 9486,
      "正是": 9487,
      "生成": 9488,
      "真实": 9489,
      "给我": 9490,
      "航空": 9491,
      "资产": 9492,
      "转换": 9493,
      "附近": 9494,
      "recomm": 9495,
      "cep": 9496,
      "pool": 9497,
      "motor": 9498,
      "ellow": 9499,
      "Through": 9500,
      "ultural": 9501,
      "结构的": 9502,
      "increasing": 9503,
      "extreme": 9504,
      "simulation": 9505,
      "config": 9506,
      "relev": 9507,
      "copy": 9508,
      "watch": 9509,
      "manager": 9510,
      "diagnosis": 9511,
      "suitable": 9512,
      "straight": 9513,
      "beginning": 9514,
      "document": 9515,
      "reasons": 9516,
      "Please": 9517,
      "3年": 9518,
      "MR": 9519,
      "Wang": 9520,
      "ae": 9521,
      "blow": 9522,
      "eco": 9523,
      "hop": 9524,
      "pun": 9525,
      "仅仅": 9526,
      "伦敦": 9527,
      "例子": 9528,
      "动机": 9529,
      "后来": 9530,
      "周围": 9531,
      "商品": 9532,
      "图书": 9533,
      "很快": 9534,
      "房子": 9535,
      "接近": 9536,
      "现状": 9537,
      "的数据": 9538,
      "相应": 9539,
      "而言": 9540,
      "记者": 9541,
      "iles": 9542,
      "beam": 9543,
      "cooperation": 9544,
      "iron": 9545,
      "felt": 9546,
      "mos": 9547,
      "qual": 9548,
      "agric": 9549,
      "pher": 9550,
      "highly": 9551,
      "closed": 9552,
      "draw": 9553,
      "icture": 9554,
      "doesn": 9555,
      "advantage": 9556,
      "advantages": 9557,
      "Guang": 9558,
      "Isra": 9559,
      "significantly": 9560,
      "simply": 9561,
      "hospital": 9562,
      "circuit": 9563,
      ")\",": 9564,
      "37": 9565,
      "Fu": 9566,
      "Lon": 9567,
      "OM": 9568,
      "Tr": 9569,
      "Yang": 9570,
      "bid": 9571,
      "cking": 9572,
      "ology": 9573,
      "rice": 9574,
      "ugh": 9575,
      "wit": 9576,
      "yield": 9577,
      "会在": 9578,
      "回到": 9579,
      "回答": 9580,
      "妈妈": 9581,
      "幸福": 9582,
      "性质": 9583,
      "总结": 9584,
      "放弃": 9585,
      "整体": 9586,
      "权利": 9587,
      "来到": 9588,
      "构造": 9589,
      "民主": 9590,
      "爱的": 9591,
      "的作用": 9592,
      "翻译": 9593,
      "自身": 9594,
      "节目": 9595,
      "角色": 9596,
      "记忆": 9597,
      "非洲": 9598,
      "istry": 9599,
      "chol": 9600,
      "states": 9601,
      "stability": 9602,
      "ford": 9603,
      "below": 9604,
      "fection": 9605,
      "acters": 9606,
      "2002": 9607,
      "student": 9608,
      "设计的": 9609,
      "miss": 9610,
      "consci": 9611,
      "sky": 9612,
      "organization": 9613,
      "feeling": 9614,
      "release": 9615,
      "dependent": 9616,
      "involved": 9617,
      "markets": 9618,
      "\"'": 9619,
      "CL": 9620,
      "CM": 9621,
      "During": 9622,
      "Fran": 9623,
      "French": 9624,
      "PA": 9625,
      "Sat": 9626,
      "culation": 9627,
      "dden": 9628,
      "eth": 9629,
      "ech": 9630,
      "rules": 9631,
      "ule": 9632,
      "yuan": 9633,
      "动脉": 9634,
      "复合": 9635,
      "威胁": 9636,
      "往往": 9637,
      "很大": 9638,
      "很有": 9639,
      "愿意": 9640,
      "指数": 9641,
      "机场": 9642,
      "美的": 9643,
      "足够": 9644,
      "这就是": 9645,
      "attemp": 9646,
      "itis": 9647,
      "forced": 9648,
      "cope": 9649,
      "mption": 9650,
      "raise": 9651,
      "compound": 9652,
      "causes": 9653,
      "previous": 9654,
      "values": 9655,
      "guar": 9656,
      "hyper": 9657,
      "enterprise": 9658,
      "enterprises": 9659,
      "tools": 9660,
      "Party": 9661,
      "nuclear": 9662,
      "ught": 9663,
      "%.\",": 9664,
      "ED": 9665,
      "Just": 9666,
      "Spe": 9667,
      "cand": 9668,
      "hum": 9669,
      "lation": 9670,
      "rist": 9671,
      "出版": 9672,
      "刺激": 9673,
      "女人": 9674,
      "应当": 9675,
      "方便": 9676,
      "普遍": 9677,
      "良好": 9678,
      "防止": 9679,
      "thick": 9680,
      "bey": 9681,
      "university": 9682,
      "limin": 9683,
      "excellent": 9684,
      "moving": 9685,
      "symp": 9686,
      "grams": 9687,
      "2011": 9688,
      "surv": 9689,
      "survey": 9690,
      "setting": 9691,
      "ternal": 9692,
      "pump": 9693,
      "tempor": 9694,
      "growing": 9695,
      "fields": 9696,
      "产生的": 9697,
      "combined": 9698,
      "wheel": 9699,
      "successful": 9700,
      "college": 9701,
      "有限公司": 9702,
      "determined": 9703,
      "evaluate": 9704,
      "private": 9705,
      "theoretical": 9706,
      "RA": 9707,
      "Val": 9708,
      "favor": 9709,
      "rates": 9710,
      "上述": 9711,
      "不再": 9712,
      "二十": 9713,
      "伤害": 9714,
      "体育": 9715,
      "危机": 9716,
      "原料": 9717,
      "命令": 9718,
      "在这里": 9719,
      "形象": 9720,
      "意思": 9721,
      "比例": 9722,
      "符合": 9723,
      "能源": 9724,
      "能量": 9725,
      "节点": 9726,
      "规范": 9727,
      "通信": 9728,
      "threat": 9729,
      "ancy": 9730,
      "atives": 9731,
      "depart": 9732,
      "becomes": 9733,
      "exchange": 9734,
      "female": 9735,
      "tran": 9736,
      "worth": 9737,
      "compreh": 9738,
      "club": 9739,
      "Chris": 9740,
      "cade": 9741,
      "ideas": 9742,
      "bration": 9743,
      "interface": 9744,
      "minim": 9745,
      "owned": 9746,
      "characters": 9747,
      "numer": 9748,
      "volume": 9749,
      "investigated": 9750,
      "severe": 9751,
      "allows": 9752,
      "strateg": 9753,
      "scientific": 9754,
      "electronic": 9755,
      "brief": 9756,
      "Je": 9757,
      "Mac": 9758,
      "West": 9759,
      "aul": 9760,
      "cate": 9761,
      "cure": 9762,
      "flex": 9763,
      "fresh": 9764,
      "games": 9765,
      "vest": 9766,
      "一天": 9767,
      "一旦": 9768,
      "人士": 9769,
      "以色": 9770,
      "仿真": 9771,
      "优点": 9772,
      "依赖": 9773,
      "保险": 9774,
      "值得": 9775,
      "决策": 9776,
      "变成": 9777,
      "可是": 9778,
      "含有": 9779,
      "培训": 9780,
      "定位": 9781,
      "将其": 9782,
      "旅行": 9783,
      "更好的": 9784,
      "有所": 9785,
      "格兰": 9786,
      "深入": 9787,
      "的方式": 9788,
      "联邦": 9789,
      "邮件": 9790,
      "都在": 9791,
      "高速": 9792,
      "item": 9793,
      "roy": 9794,
      "leave": 9795,
      "veget": 9796,
      "belong": 9797,
      "wear": 9798,
      "compl": 9799,
      "agent": 9800,
      "philoso": 9801,
      "train": 9802,
      "carri": 9803,
      "regard": 9804,
      "virt": 9805,
      "schools": 9806,
      "population": 9807,
      "radio": 9808,
      "rats": 9809,
      "window": 9810,
      "contains": 9811,
      "domestic": 9812,
      "treated": 9813,
      "2010年": 9814,
      "promote": 9815,
      "associated": 9816,
      "Austr": 9817,
      "以色列": 9818,
      "Am": 9819,
      "EE": 9820,
      "Here": 9821,
      "date": 9822,
      "fing": 9823,
      "gi": 9824,
      "hab": 9825,
      "picture": 9826,
      "vic": 9827,
      "地位": 9828,
      "是什么": 9829,
      "有了": 9830,
      "有时": 9831,
      "构成": 9832,
      "耶和华": 9833,
      "障碍": 9834,
      "income": 9835,
      "chief": 9836,
      "arma": 9837,
      "argu": 9838,
      "sudden": 9839,
      "evidence": 9840,
      "cars": 9841,
      "Asia": 9842,
      "played": 9843,
      "plane": 9844,
      "skills": 9845,
      "functions": 9846,
      "craft": 9847,
      "sweet": 9848,
      "crisis": 9849,
      "Austral": 9850,
      "39": 9851,
      "Air": 9852,
      "Par": 9853,
      "gment": 9854,
      "jun": 9855,
      "mut": 9856,
      "nes": 9857,
      "scor": 9858,
      "上帝": 9859,
      "创作": 9860,
      "品种": 9861,
      "在那": 9862,
      "宣布": 9863,
      "数学": 9864,
      "曲线": 9865,
      "的生活": 9866,
      "身上": 9867,
      "身份": 9868,
      "ana": 9869,
      "anced": 9870,
      "leaves": 9871,
      "forces": 9872,
      "urs": 9873,
      "propos": 9874,
      "except": 9875,
      "trou": 9876,
      "trend": 9877,
      "diseas": 9878,
      "196": 9879,
      "grade": 9880,
      "cycle": 9881,
      "controlled": 9882,
      "guide": 9883,
      "calls": 9884,
      "costs": 9885,
      "paid": 9886,
      "gradu": 9887,
      "floor": 9888,
      "competition": 9889,
      "Russia": 9890,
      "powder": 9891,
      "relevant": 9892,
      "London": 9893,
      "Ano": 9894,
      "East": 9895,
      "Long": 9896,
      "Not": 9897,
      "Research": 9898,
      "bacter": 9899,
      "hun": 9900,
      "py": 9901,
      "til": 9902,
      "不足": 9903,
      "以上": 9904,
      "以为": 9905,
      "发出": 9906,
      "实例": 9907,
      "展开": 9908,
      "想法": 9909,
      "更好": 9910,
      "让你": 9911,
      "间的": 9912,
      "阿拉": 9913,
      "instru": 9914,
      "error": 9915,
      "aling": 9916,
      "util": 9917,
      "plas": 9918,
      "我们将": 9919,
      "India": 9920,
      "observe": 9921,
      "cord": 9922,
      "mony": 9923,
      "engthen": 9924,
      "tried": 9925,
      "factory": 9926,
      "国家的": 9927,
      "这是一个": 9928,
      "bodies": 9929,
      "discussion": 9930,
      "viol": 9931,
      "daily": 9932,
      "annual": 9933,
      "domin": 9934,
      "balance": 9935,
      "objects": 9936,
      "animal": 9937,
      "record": 9938,
      "Internet": 9939,
      "99": 9940,
      "ST": 9941,
      "San": 9942,
      "hur": 9943,
      "nur": 9944,
      "pig": 9945,
      "uters": 9946,
      "wine": 9947,
      "za": 9948,
      "俱乐": 9949,
      "单元": 9950,
      "合同": 9951,
      "品质": 9952,
      "宗教": 9953,
      "感谢": 9954,
      "监测": 9955,
      "相似": 9956,
      "离子": 9957,
      "编辑": 9958,
      "警察": 9959,
      "赛季": 9960,
      "运输": 9961,
      "面积": 9962,
      "高级": 9963,
      "）\"}": 9964,
      "ensure": 9965,
      "thetic": 9966,
      "reference": 9967,
      "aries": 9968,
      "ctors": 9969,
      "ades": 9970,
      "neigh": 9971,
      "exact": 9972,
      "die": 9973,
      "died": 9974,
      "amin": 9975,
      "earlier": 9976,
      "spend": 9977,
      "produced": 9978,
      "relations": 9979,
      "talking": 9980,
      "plants": 9981,
      "distance": 9982,
      "join": 9983,
      "included": 9984,
      "flowers": 9985,
      "appeared": 9986,
      "提出了一种": 9987,
      "looks": 9988,
      "aughter": 9989,
      "platform": 9990,
      "Province": 9991,
      "iques": 9992,
      "ublic": 9993,
      "diseases": 9994,
      "Another": 9995,
      "Cap": 9996,
      "Center": 9997,
      "ON": 9998,
      "Park": 9999
    },
    "merges": [
      [
        "i",
        "n"
      ],
      [
        "t",
        "h"
      ],
      [
        "e",
        "n"
      ],
      [
        "\"",
        ":"
      ],
      [
        "e",
        "s"
      ],
      [
        "i",
        "s"
      ],
      [
        "a",
        "n"
      ],
      [
        "e",
        "r"
      ],
      [
        "c",
        "h"
      ],
      [
        "o",
        "n"
      ],
      [
        "th",
        "e"
      ],
      [
        "es",
        "e"
      ],
      [
        "g",
        "l"
      ],
      [
        "is",
        "h"
      ],
      [
        "a",
        "t"
      ],
      [
        "ch",
        "in"
      ],
      [
        "gl",
        "ish"
      ],
      [
        "\"",
        ","
      ],
      [
        "chin",
        "ese"
      ],
      [
        "en",
        "glish"
      ],
      [
        "\"",
        "}"
      ],
      [
        "{",
        "\""
      ],
      [
        ".",
        "\","
      ],
      [
        "o",
        "r"
      ],
      [
        "。",
        "\"}"
      ],
      [
        "a",
        "l"
      ],
      [
        "r",
        "e"
      ],
      [
        "e",
        "d"
      ],
      [
        "o",
        "f"
      ],
      [
        "o",
        "u"
      ],
      [
        "an",
        "d"
      ],
      [
        "in",
        "g"
      ],
      [
        "a",
        "r"
      ],
      [
        "t",
        "o"
      ],
      [
        "a",
        "s"
      ],
      [
        "i",
        "t"
      ],
      [
        "i",
        "on"
      ],
      [
        "i",
        "c"
      ],
      [
        "s",
        "t"
      ],
      [
        "r",
        "o"
      ],
      [
        "l",
        "e"
      ],
      [
        "en",
        "t"
      ],
      [
        "c",
        "t"
      ],
      [
        "h",
        "e"
      ],
      [
        "v",
        "e"
      ],
      [
        "i",
        "l"
      ],
      [
        "m",
        "e"
      ],
      [
        "d",
        "e"
      ],
      [
        "s",
        "e"
      ],
      [
        "f",
        "or"
      ],
      [
        "b",
        "e"
      ],
      [
        "c",
        "o"
      ],
      [
        "l",
        "o"
      ],
      [
        "l",
        "y"
      ],
      [
        "at",
        "ion"
      ],
      [
        "c",
        "e"
      ],
      [
        "i",
        "g"
      ],
      [
        "a",
        "d"
      ],
      [
        "u",
        "r"
      ],
      [
        "T",
        "he"
      ],
      [
        "t",
        "er"
      ],
      [
        "m",
        "p"
      ],
      [
        "c",
        "on"
      ],
      [
        "v",
        "er"
      ],
      [
        "i",
        "d"
      ],
      [
        "a",
        "y"
      ],
      [
        "u",
        "l"
      ],
      [
        "u",
        "s"
      ],
      [
        "p",
        "ro"
      ],
      [
        "u",
        "t"
      ],
      [
        "r",
        "a"
      ],
      [
        "u",
        "n"
      ],
      [
        "i",
        "th"
      ],
      [
        "n",
        "o"
      ],
      [
        "g",
        "e"
      ],
      [
        "w",
        "h"
      ],
      [
        "o",
        "l"
      ],
      [
        "i",
        "r"
      ],
      [
        "th",
        "at"
      ],
      [
        "a",
        "re"
      ],
      [
        "a",
        "b"
      ],
      [
        "es",
        "s"
      ],
      [
        "m",
        "ent"
      ],
      [
        "a",
        "p"
      ],
      [
        "w",
        "ith"
      ],
      [
        "y",
        "ou"
      ],
      [
        "t",
        "e"
      ],
      [
        "l",
        "i"
      ],
      [
        "p",
        "e"
      ],
      [
        "s",
        "o"
      ],
      [
        "n",
        "e"
      ],
      [
        "m",
        "a"
      ],
      [
        "es",
        "t"
      ],
      [
        "a",
        "c"
      ],
      [
        "w",
        "e"
      ],
      [
        "s",
        "u"
      ],
      [
        "r",
        "i"
      ],
      [
        "k",
        "e"
      ],
      [
        "o",
        "d"
      ],
      [
        "\\",
        "\""
      ],
      [
        "er",
        "e"
      ],
      [
        "p",
        "er"
      ],
      [
        "s",
        "h"
      ],
      [
        "l",
        "d"
      ],
      [
        "p",
        "o"
      ],
      [
        "e",
        "x"
      ],
      [
        "f",
        "e"
      ],
      [
        "t",
        "s"
      ],
      [
        "at",
        "e"
      ],
      [
        "il",
        "l"
      ],
      [
        "it",
        "y"
      ],
      [
        "al",
        "l"
      ],
      [
        "p",
        "l"
      ],
      [
        "h",
        "a"
      ],
      [
        "t",
        "i"
      ],
      [
        "m",
        "o"
      ],
      [
        "ig",
        "h"
      ],
      [
        "q",
        "u"
      ],
      [
        "d",
        "i"
      ],
      [
        "a",
        "m"
      ],
      [
        "w",
        "as"
      ],
      [
        "b",
        "y"
      ],
      [
        "ou",
        "n"
      ],
      [
        "i",
        "ve"
      ],
      [
        "er",
        "s"
      ],
      [
        "h",
        "is"
      ],
      [
        "t",
        "r"
      ],
      [
        "一",
        "个"
      ],
      [
        "o",
        "w"
      ],
      [
        "ou",
        "t"
      ],
      [
        "t",
        "a"
      ],
      [
        "r",
        "es"
      ],
      [
        "l",
        "l"
      ],
      [
        "on",
        "e"
      ],
      [
        "m",
        "an"
      ],
      [
        "c",
        "i"
      ],
      [
        "u",
        "re"
      ],
      [
        "o",
        "p"
      ],
      [
        "th",
        "er"
      ],
      [
        "c",
        "an"
      ],
      [
        "ro",
        "m"
      ],
      [
        "d",
        "u"
      ],
      [
        "0",
        "0"
      ],
      [
        "w",
        "or"
      ],
      [
        "ou",
        "r"
      ],
      [
        "ct",
        "ion"
      ],
      [
        "ha",
        "ve"
      ],
      [
        "f",
        "rom"
      ],
      [
        "g",
        "o"
      ],
      [
        "我",
        "们"
      ],
      [
        "ar",
        "t"
      ],
      [
        "e",
        "m"
      ],
      [
        "is",
        "t"
      ],
      [
        "s",
        "a"
      ],
      [
        "I",
        "n"
      ],
      [
        "ic",
        "al"
      ],
      [
        "h",
        "as"
      ],
      [
        "th",
        "is"
      ],
      [
        "co",
        "mp"
      ],
      [
        "an",
        "t"
      ],
      [
        "o",
        "m"
      ],
      [
        "i",
        "m"
      ],
      [
        "st",
        "r"
      ],
      [
        "ou",
        "ld"
      ],
      [
        "en",
        "d"
      ],
      [
        "a",
        "g"
      ],
      [
        "or",
        "e"
      ],
      [
        "c",
        "l"
      ],
      [
        "a",
        "ct"
      ],
      [
        "u",
        "m"
      ],
      [
        "on",
        "g"
      ],
      [
        "C",
        "h"
      ],
      [
        "p",
        "r"
      ],
      [
        "i",
        "f"
      ],
      [
        "no",
        "t"
      ],
      [
        "in",
        "e"
      ],
      [
        "igh",
        "t"
      ],
      [
        "or",
        "t"
      ],
      [
        "e",
        "t"
      ],
      [
        "ar",
        "d"
      ],
      [
        "g",
        "h"
      ],
      [
        "i",
        "z"
      ],
      [
        "wh",
        "i"
      ],
      [
        "u",
        "p"
      ],
      [
        "d",
        "o"
      ],
      [
        "co",
        "m"
      ],
      [
        "e",
        "ar"
      ],
      [
        "lo",
        "w"
      ],
      [
        "b",
        "ut"
      ],
      [
        "an",
        "g"
      ],
      [
        "u",
        "d"
      ],
      [
        "as",
        "t"
      ],
      [
        "at",
        "ed"
      ],
      [
        "i",
        "es"
      ],
      [
        "in",
        "d"
      ],
      [
        "p",
        "h"
      ],
      [
        "w",
        "ill"
      ],
      [
        "他",
        "们"
      ],
      [
        "f",
        "f"
      ],
      [
        "ou",
        "s"
      ],
      [
        "可",
        "以"
      ],
      [
        "i",
        "e"
      ],
      [
        "s",
        "y"
      ],
      [
        "d",
        "er"
      ],
      [
        "c",
        "a"
      ],
      [
        "d",
        "is"
      ],
      [
        "i",
        "de"
      ],
      [
        "ig",
        "n"
      ],
      [
        "for",
        "m"
      ],
      [
        "it",
        "s"
      ],
      [
        "g",
        "r"
      ],
      [
        "ou",
        "gh"
      ],
      [
        "b",
        "o"
      ],
      [
        "ic",
        "e"
      ],
      [
        "k",
        "ing"
      ],
      [
        "i",
        "mp"
      ],
      [
        "oun",
        "d"
      ],
      [
        "a",
        "ge"
      ],
      [
        "c",
        "re"
      ],
      [
        "w",
        "ere"
      ],
      [
        "研",
        "究"
      ],
      [
        "e",
        "l"
      ],
      [
        "u",
        "se"
      ],
      [
        "u",
        "st"
      ],
      [
        "whi",
        "ch"
      ],
      [
        "T",
        "h"
      ],
      [
        "an",
        "s"
      ],
      [
        "in",
        "t"
      ],
      [
        "ab",
        "le"
      ],
      [
        "en",
        "ce"
      ],
      [
        "i",
        "v"
      ],
      [
        "con",
        "t"
      ],
      [
        "k",
        "s"
      ],
      [
        "al",
        "ly"
      ],
      [
        "as",
        "s"
      ],
      [
        "进",
        "行"
      ],
      [
        "it",
        "ion"
      ],
      [
        "Ch",
        "in"
      ],
      [
        "a",
        "ch"
      ],
      [
        "m",
        "ore"
      ],
      [
        "p",
        "re"
      ],
      [
        "h",
        "o"
      ],
      [
        "you",
        "r"
      ],
      [
        "no",
        "w"
      ],
      [
        "a",
        "ce"
      ],
      [
        "c",
        "ess"
      ],
      [
        "e",
        "f"
      ],
      [
        "at",
        "er"
      ],
      [
        "b",
        "le"
      ],
      [
        "ver",
        "y"
      ],
      [
        "e",
        "ct"
      ],
      [
        "i",
        "al"
      ],
      [
        "s",
        "er"
      ],
      [
        "the",
        "y"
      ],
      [
        "an",
        "ce"
      ],
      [
        "o",
        "b"
      ],
      [
        "s",
        "pe"
      ],
      [
        "the",
        "ir"
      ],
      [
        "st",
        "em"
      ],
      [
        "so",
        "me"
      ],
      [
        "ar",
        "y"
      ],
      [
        "s",
        "p"
      ],
      [
        "I",
        "t"
      ],
      [
        "lo",
        "g"
      ],
      [
        "ac",
        "k"
      ],
      [
        "a",
        "in"
      ],
      [
        "e",
        "v"
      ],
      [
        "w",
        "o"
      ],
      [
        "as",
        "e"
      ],
      [
        "i",
        "a"
      ],
      [
        "w",
        "ay"
      ],
      [
        "en",
        "s"
      ],
      [
        "t",
        "y"
      ],
      [
        "o",
        "ther"
      ],
      [
        "ne",
        "w"
      ],
      [
        "fe",
        "ct"
      ],
      [
        "wh",
        "o"
      ],
      [
        "al",
        "so"
      ],
      [
        "ti",
        "me"
      ],
      [
        "y",
        "ear"
      ],
      [
        "d",
        "es"
      ],
      [
        "c",
        "or"
      ],
      [
        "b",
        "r"
      ],
      [
        "d",
        "ay"
      ],
      [
        "t",
        "ra"
      ],
      [
        "方",
        "法"
      ],
      [
        "sy",
        "stem"
      ],
      [
        "re",
        "e"
      ],
      [
        "c",
        "ent"
      ],
      [
        "j",
        "ect"
      ],
      [
        "b",
        "l"
      ],
      [
        "m",
        "y"
      ],
      [
        "in",
        "ter"
      ],
      [
        "T",
        "his"
      ],
      [
        "m",
        "in"
      ],
      [
        "i",
        "p"
      ],
      [
        "ow",
        "n"
      ],
      [
        "ent",
        "s"
      ],
      [
        "it",
        "e"
      ],
      [
        "of",
        "f"
      ],
      [
        "e",
        "p"
      ],
      [
        "中",
        "国"
      ],
      [
        "ve",
        "lo"
      ],
      [
        "A",
        "n"
      ],
      [
        "a",
        "f"
      ],
      [
        "ul",
        "t"
      ],
      [
        "c",
        "k"
      ],
      [
        "an",
        "y"
      ],
      [
        "sa",
        "id"
      ],
      [
        "1",
        "9"
      ],
      [
        "wor",
        "k"
      ],
      [
        "h",
        "igh"
      ],
      [
        "li",
        "ke"
      ],
      [
        "p",
        "ar"
      ],
      [
        "po",
        "s"
      ],
      [
        "be",
        "en"
      ],
      [
        "o",
        "ver"
      ],
      [
        "这",
        "个"
      ],
      [
        "or",
        "y"
      ],
      [
        "2",
        "00"
      ],
      [
        "m",
        "ar"
      ],
      [
        "p",
        "ort"
      ],
      [
        "h",
        "ad"
      ],
      [
        "op",
        "le"
      ],
      [
        "系",
        "统"
      ],
      [
        "h",
        "er"
      ],
      [
        "ation",
        "s"
      ],
      [
        "b",
        "er"
      ],
      [
        "m",
        "on"
      ],
      [
        "ab",
        "out"
      ],
      [
        "th",
        "od"
      ],
      [
        "a",
        "v"
      ],
      [
        "没",
        "有"
      ],
      [
        "velo",
        "p"
      ],
      [
        "g",
        "en"
      ],
      [
        "th",
        "an"
      ],
      [
        "u",
        "e"
      ],
      [
        "公",
        "司"
      ],
      [
        "W",
        "e"
      ],
      [
        "?",
        "\","
      ],
      [
        "c",
        "ur"
      ],
      [
        "问",
        "题"
      ],
      [
        "in",
        "to"
      ],
      [
        "p",
        "art"
      ],
      [
        "o",
        "k"
      ],
      [
        "ol",
        "d"
      ],
      [
        "g",
        "ra"
      ],
      [
        "f",
        "l"
      ],
      [
        "de",
        "velop"
      ],
      [
        "d",
        "r"
      ],
      [
        "c",
        "oun"
      ],
      [
        "pro",
        "du"
      ],
      [
        "the",
        "m"
      ],
      [
        "th",
        "ere"
      ],
      [
        "pe",
        "ople"
      ],
      [
        "使",
        "用"
      ],
      [
        "f",
        "ul"
      ],
      [
        "be",
        "t"
      ],
      [
        "i",
        "re"
      ],
      [
        "W",
        "h"
      ],
      [
        "c",
        "es"
      ],
      [
        "可",
        "能"
      ],
      [
        "le",
        "ct"
      ],
      [
        "or",
        "s"
      ],
      [
        "1",
        "0"
      ],
      [
        "f",
        "ir"
      ],
      [
        "一",
        "种"
      ],
      [
        "str",
        "u"
      ],
      [
        "m",
        "er"
      ],
      [
        "re",
        "l"
      ],
      [
        "th",
        "ing"
      ],
      [
        "ta",
        "in"
      ],
      [
        "re",
        "at"
      ],
      [
        "c",
        "y"
      ],
      [
        "b",
        "as"
      ],
      [
        "H",
        "e"
      ],
      [
        "c",
        "ed"
      ],
      [
        "；",
        "\"}"
      ],
      [
        "en",
        "g"
      ],
      [
        "工",
        "作"
      ],
      [
        "al",
        "y"
      ],
      [
        "di",
        "ff"
      ],
      [
        "这",
[...]
